FF
02
FD
FF
FC
04
FE
FD
02
FF
FD
FE
03
03
01
FE
FD
FB
FF
FB
02
FD
FE
FF
00
FD
FF
00
03
00
04
02
00
FF
FF
02
FE
03
F5
01
FE
FA
FD
FE
FD
01
02
00
03
FD
01
01
04
FF
F7
FC
FB
FE
02
FC
F6
FD
FF
04
FA
FC
FC
FB
03
05
01
05
FE
FF
04
FE
05
FB
FB
FE
FE
FD
FD
FB
00
FD
03
FB
02
05
FC
FF
01
FD
06
04
03
00
01
FD
01
00
FC
FA
FB
FD
04
FF
FF
F6
FC
FA
02
01
03
FC
FC
02
01
07
05
01
FE
FE
FE
FF
FF
04
00
FE
FC
04
FF
FA
FF
06
00
FB
FB
FC
02
FE
FC
02
03
FD
FC
00
01
00
01
FF
00
02
FE
00
01
04
FF
FE
FE
FC
F9
FE
02
FF
04
FE
01
02
FF
04
02
FB
FB
FB
01
FE
00
FD
00
03
03
FA
FD
FA
02
FB
FC
03
FE
00
FF
FC
05
FF
02
04
FF
00
FE
FE
FF
02
01
FD
00
02
04
FF
FF
FF
FA
02
04
01
FB
01
FF
FA
FD
FD
02
FE
FA
03
03
03
02
FD
03
FD
03
FF
02
04
02
05
07
04
05
03
FC
01
FF
01
FD
F1
F2
FB
F9
FF
00
03
FB
00
06
FC
FC
FC
FB
03
00
02
FD
02
01
06
01
FE
03
01
FC
FB
FD
03
01
FE
FF
FF
00
FE
FD
01
FF
04
03
02
06
FF
05
FD
00
04
07
FF
FB
00
02
01
01
01
06
02
FB
FF
01
00
03
FD
FD
FF
FC
FE
FF
01
02
FA
03
02
00
00
FB
FC
08
FE
02
00
FF
02
FB
02
FD
FB
FB
04
FF
FB
FF
FD
FD
FF
FF
01
06
04
FE
03
02
FF
FE
00
FF
03
FA
FF
FD
05
05
03
02
FD
01
02
05
FD
FC
F9
FF
06
05
FE
FF
FE
FD
FE
01
01
01
01
01
03
00
FF
02
02
04
FA
FB
FD
06
FF
00
FF
FF
00
05
04
00
00
03
FD
FF
02
02
00
FF
F9
F5
FF
00
05
FA
FC
FB
04
02
FD
02
00
F8
FA
FE
05
00
FB
01
FC
04
01
FB
00
FB
00
01
FF
FE
FA
04
FF
FE
FF
FB
04
02
05
02
01
0A
00
00
01
FD
FB
F8
03
06
FC
F8
FA
FC
FD
F9
FA
FB
FF
FD
FE
FA
00
FC
FE
03
FF
04
F7
02
06
07
FD
05
03
03
03
F5
02
01
05
FB
FA
02
04
FB
00
FC
FE
FD
FE
00
FD
04
FB
F6
FB
00
04
FF
FD
FA
04
FD
04
00
FF
02
FF
FF
FE
FF
05
02
01
FC
00
07
FC
04
00
01
FC
01
FE
01
06
FE
FE
05
00
F9
FA
01
00
00
FE
03
03
02
03
00
06
FD
02
FE
F9
FF
FD
02
01
FA
FE
01
00
FE
F8
FE
05
01
03
FF
05
00
FA
02
01
01
FB
FC
06
04
FD
02
00
01
04
FD
07
03
03
04
FC
05
03
00
01
FC
00
FD
FF
FE
05
FC
FB
FE
FA
03
FC
FB
03
FF
FD
FE
01
02
01
FD
FE
FD
FF
FF
03
01
04
FE
06
03
FF
00
00
04
06
FD
00
05
05
FF
FD
05
05
FE
08
F9
03
05
FA
FF
FE
05
03
08
01
02
FD
04
06
06
07
04
0A
05
FF
00
04
01
06
FE
05
03
FF
00
00
FE
0B
02
FE
F8
FE
FF
03
FF
05
FB
03
03
03
02
FB
03
01
FE
FC
01
FF
01
FA
02
01
FF
FC
F8
F5
01
03
04
03
FC
FF
01
00
00
FC
01
03
05
FE
FF
FE
02
05
02
FC
FE
04
03
06
FC
02
FE
FC
FC
01
03
FC
FD
00
FE
01
FD
FC
FA
FA
04
05
FD
00
FE
01
02
FC
FC
FD
FC
03
FF
01
08
FF
02
02
05
FC
01
05
02
FC
FB
FC
01
FD
FB
02
F7
FF
FF
01
04
03
03
04
01
03
02
FD
FE
FF
FD
FF
04
FD
FE
FC
05
05
FF
07
03
01
02
FC
FD
04
01
05
04
FC
F8
FF
02
02
01
FF
04
FE
FC
FD
F9
FB
01
FC
FC
04
FC
F9
01
01
02
02
02
FE
FE
FB
FE
FF
00
FE
FC
02
04
00
FF
03
03
02
06
FE
06
FE
01
09
09
07
03
02
02
FC
FB
02
04
04
02
FD
FB
00
FF
01
00
F8
FB
02
03
03
03
02
04
03
05
FE
01
FB
FC
03
FF
FF
04
03
00
02
FE
01
01
FE
FD
FD
00
FE
FE
FF
FC
FD
06
03
03
FF
00
FC
F8
02
06
05
FA
FD
00
FB
00
FD
06
FB
FD
FE
01
08
02
02
04
05
FC
01
FD
FF
FE
01
02
FC
FA
FE
FD
02
FE
01
04
01
07
05
FF
FD
03
04
01
04
FE
09
FB
FE
02
FE
FA
FD
03
FF
01
FF
02
FE
01
00
FE
00
02
FF
01
00
01
FB
05
06
00
08
FD
FF
FD
FD
03
01
03
FF
FE
05
01
FB
FE
00
05
02
F9
02
02
03
FF
01
FE
03
FE
00
FE
00
FD
FA
FE
FB
FE
02
01
03
02
FC
FC
03
03
02
02
03
FF
FF
FF
06
04
00
FD
FF
FF
00
FA
FF
03
03
07
FC
FB
02
03
FE
FF
FD
FF
01
F2
00
02
FF
FD
FE
03
FE
FB
FF
03
04
F9
FC
FE
02
FE
F6
FD
FD
02
FA
F9
03
04
FB
07
02
00
FC
F9
01
00
FB
FD
FB
FF
FE
00
FD
00
01
01
02
02
01
03
01
01
01
FC
03
03
FD
FB
F7
03
02
03
FE
FE
01
02
04
06
FC
FE
FF
FB
02
05
FE
FC
FF
FA
08
00
F9
FB
00
02
02
FD
00
FB
FC
06
06
01
FC
FE
00
FE
03
04
04
04
04
00
FC
03
01
FD
02
FC
06
FC
01
00
F9
F5
00
03
00
02
01
00
03
01
FF
04
01
FF
01
FC
FE
FC
FC
03
00
03
01
03
04
FF
FE
03
02
FC
FF
FF
03
FD
FF
02
03
FE
00
04
05
06
02
06
02
02
02
00
04
08
00
FE
FE
03
05
01
FA
FF
04
05
03
00
FB
02
04
01
FC
07
05
04
FE
FD
00
05
04
01
FE
FC
01
FC
FD
FB
F9
FF
FD
FA
FF
01
FE
FE
F9
FD
07
01
FC
FE
FD
03
06
05
FB
F9
03
02
FF
01
FE
03
FF
FE
02
04
02
00
03
04
FF
01
03
FE
03
FF
FB
F7
FF
03
01
00
FA
02
FE
FC
FB
FE
03
02
02
FA
03
FD
FF
01
FB
FD
FD
03
01
06
01
FF
FE
F9
FF
FF
02
00
04
02
05
02
01
F9
00
00
00
01
F7
FB
00
00
03
FE
01
FC
FE
04
05
02
FF
FD
FE
01
FF
03
00
FC
FE
FD
FC
FE
FE
FF
FF
04
04
FD
F9
05
FF
02
01
FC
00
03
02
FF
01
FD
FD
04
00
FF
04
03
02
FE
FF
05
03
04
FE
FA
FF
FC
FF
00
F8
05
FD
FE
FD
04
04
FE
01
03
02
FD
FC
FC
FD
FF
05
00
FC
FE
01
FF
00
01
FF
01
FB
01
02
01
02
FC
03
00
00
FE
FF
FF
FE
03
FD
03
03
FE
FD
FF
FD
FD
FC
00
00
FB
FC
03
FF
F9
FF
FF
FC
FD
F9
FE
04
00
FF
FD
FA
FA
00
02
FA
FE
FC
FB
03
02
F9
F3
03
04
06
FE
F9
FB
02
FD
02
F7
F9
FF
FD
09
F6
FB
FD
02
FD
FC
FE
F9
FC
FA
FF
02
05
FE
FB
FF
FF
FF
01
F8
FC
00
01
03
FE
FC
02
06
01
FE
04
FF
02
FA
FD
02
FF
02
FC
FC
01
00
FE
02
FF
02
FE
01
FE
03
FC
FB
FC
02
01
02
03
03
FB
01
FD
05
04
FF
FD
05
01
FF
00
00
02
FC
FE
03
03
02
04
02
FF
FE
FF
00
FC
F9
03
00
05
03
F9
FD
FD
FE
FC
F7
FB
FE
00
04
FC
01
00
02
FF
FD
06
00
FF
00
01
FB
FD
FA
01
00
FD
FD
00
00
FE
FD
03
FF
00
00
04
01
03
FA
FE
02
FD
F8
F6
FA
00
F6
FC
F5
F8
FF
FB
00
FB
FC
03
04
00
FF
FF
04
05
00
02
02
01
FC
02
01
06
FF
FD
03
00
05
FE
00
FF
FC
04
FE
FD
FC
03
FF
02
FC
FC
F9
FE
FE
FC
F9
F1
FB
FE
00
00
FC
FD
04
04
02
01
FE
00
02
01
FE
04
01
02
FD
00
FE
00
06
03
02
03
00
03
FC
00
FC
02
04
04
01
FA
01
01
00
FC
01
02
FD
03
FF
02
FC
F6
F2
F8
06
FA
FE
00
FD
03
03
00
FF
FE
02
02
02
01
00
F9
00
FE
00
FC
FF
FD
FC
00
01
FE
01
02
00
03
04
FF
FF
FF
01
00
02
FC
02
05
02
01
FF
FA
FE
FF
FE
FA
F8
FD
FF
03
01
03
FD
FC
04
02
01
00
03
FF
FF
FC
01
FE
F9
FA
FA
05
03
F9
FC
F4
00
FD
FD
00
F6
FC
FE
02
01
05
FE
01
01
FF
05
02
04
FB
FC
01
FD
02
03
02
FE
03
FF
00
FE
FD
03
01
04
01
FE
01
00
FA
FD
FF
03
05
02
FE
FD
03
00
00
FF
07
01
0B
02
FF
03
01
08
FE
FE
00
FE
02
00
01
02
01
FE
FC
00
06
01
02
00
00
03
08
04
FF
04
01
04
05
02
05
FE
FA
00
02
03
00
FD
02
FB
FF
01
01
03
03
FE
06
08
04
02
00
00
04
01
04
FF
02
FF
FC
02
FC
05
FC
FD
FF
06
01
FE
00
06
05
FD
FC
FF
04
FF
FA
FF
F9
FE
01
FF
FF
FF
FD
FF
01
FE
00
01
FC
04
06
F8
00
F9
F8
FA
01
03
05
05
02
01
03
00
04
02
04
02
FB
FD
FE
FD
03
FE
FD
F9
FD
05
FF
FF
01
0B
06
01
FB
FF
03
01
FF
FD
FD
FD
FE
04
03
FF
FF
03
FF
FF
05
FB
FC
FC
FA
FF
FD
01
FD
01
FF
03
02
FF
04
05
06
05
00
00
FF
00
00
FE
FD
01
FE
FA
FD
00
03
03
FD
FB
04
02
01
FE
03
00
04
04
02
00
04
01
FF
01
08
01
FB
F8
00
00
FF
00
FE
01
01
FD
FF
03
FE
02
FE
04
03
01
FD
FD
FD
00
02
04
01
FD
FD
FE
FA
FE
06
03
FF
FF
02
04
03
01
03
FD
02
03
01
FF
00
FC
FF
01
02
01
00
FF
01
03
06
FC
FA
FF
04
04
F9
02
02
02
00
FD
FC
03
02
01
04
00
01
FE
01
FB
FF
FC
01
06
06
05
01
FC
03
02
05
03
FF
FD
FD
FC
FF
FE
FF
00
FB
FF
FE
02
FE
01
03
00
03
04
FB
FE
02
00
03
04
FB
03
FA
F8
00
FC
00
FF
FA
FB
02
02
00
02
FF
00
FF
FB
02
03
FC
FE
FF
FF
FF
03
01
04
FE
FD
04
05
02
04
01
02
05
00
FE
FF
F5
06
05
07
04
FE
02
03
03
02
FF
FE
04
00
01
FE
03
FF
FF
FC
04
02
FC
FB
FD
03
FF
02
00
00
FE
04
01
01
00
FB
02
FA
FE
FD
02
FD
FB
FC
00
FD
FF
05
01
01
05
03
FF
FB
05
01
01
00
F3
F2
03
FF
03
FC
FA
01
FA
00
03
03
FF
FE
FE
04
02
FA
FD
FE
F9
01
02
08
FE
FB
FB
FE
FB
03
FC
FF
FF
F5
02
01
FD
FC
FD
FE
02
04
00
01
01
FE
03
FE
03
F9
F6
FB
FD
F9
FA
FA
F6
FA
FD
00
01
FA
F9
FC
00
03
00
01
00
04
FE
07
02
FC
FB
F9
01
FF
05
FF
04
00
FD
00
00
04
FE
FD
01
FA
FC
00
FD
02
00
05
06
01
00
FF
FE
FF
01
FE
FD
F9
FF
02
FF
02
03
FF
FD
05
03
00
01
03
03
FF
04
03
02
FB
F8
F5
F6
FD
FF
FE
FF
FE
04
03
01
04
01
03
FE
00
02
02
02
FE
FE
00
01
03
FF
06
04
FF
03
03
00
00
FC
FB
FA
FB
00
FE
FF
FD
04
00
FD
01
FC
FE
04
09
FD
FB
FE
00
06
F6
F8
FC
00
FB
FE
00
04
02
F9
FE
04
FE
FD
01
FF
FD
FE
FD
00
FF
FC
FD
02
03
FE
01
03
03
04
FF
02
05
FF
F9
F8
F7
FB
01
FA
01
FB
FC
03
05
F6
F9
FD
04
08
FA
FC
FE
01
02
02
FD
FE
00
03
03
04
01
02
00
06
FF
06
FE
00
07
FE
FA
FE
FF
FD
FF
F9
FD
02
FB
F8
FC
01
02
03
07
01
04
FC
FA
FD
02
0A
04
FA
00
02
04
FE
FA
FD
FB
FA
F5
FD
FD
FF
03
00
FF
01
01
00
03
01
01
FF
FE
FA
02
01
00
00
FC
FE
01
03
FC
06
FE
04
FF
00
FC
FB
02
01
00
FF
FE
FA
FD
FA
FD
FF
FD
FB
04
04
02
02
01
00
04
FD
00
02
02
FF
FD
FD
FF
FF
00
FC
02
FF
01
0A
FC
FE
FF
03
00
F4
03
FD
F9
FC
F9
F9
00
FC
00
FC
FF
04
01
04
04
FD
00
FE
01
02
01
FE
FD
FD
FE
04
FE
00
00
03
04
FE
01
FF
FB
01
02
01
00
02
04
05
05
FB
02
00
00
F8
F7
00
04
FF
FF
FD
06
03
F9
FD
00
02
05
FD
F4
FC
FE
07
02
04
FF
03
08
05
FF
F7
01
07
00
FF
F9
FF
04
01
FC
02
FE
FB
FA
FB
04
03
03
01
05
FB
02
05
04
00
00
05
FE
FF
FD
02
04
00
02
00
01
03
FC
F9
FC
FD
03
FD
FF
FF
08
FC
FD
FA
01
01
01
FF
01
02
00
06
00
01
FE
00
00
04
FE
01
01
00
00
FF
01
01
00
FF
FE
02
07
FB
FA
FC
FD
03
FD
01
FE
03
04
00
FF
FE
FF
03
04
FD
02
04
04
02
FC
FE
FE
FD
01
FC
FB
FC
FD
FE
FA
FD
FE
FE
05
02
FE
03
FF
02
FC
FC
FF
FC
FF
02
02
FE
00
FE
05
FF
04
FE
01
04
05
05
FE
FF
FE
FF
04
00
FD
FE
01
01
02
08
09
02
01
04
05
04
01
03
FE
02
FD
FF
01
01
FD
FD
FD
05
02
00
04
FC
02
02
03
01
05
00
05
00
FB
00
03
FE
00
00
03
04
03
FD
02
01
FC
FD
03
0A
04
FF
FD
06
04
02
01
FB
02
FD
02
FD
04
02
FB
FB
00
FD
F7
FE
F8
01
03
FF
05
04
04
00
04
02
00
FC
FE
FC
FB
03
00
00
FF
04
FF
01
FD
F8
FA
FC
FC
FE
03
FD
02
FC
FD
02
FF
FB
FE
01
02
FE
FD
04
02
FD
FB
FF
04
FD
FA
FF
FB
FC
02
FB
F9
FE
FE
00
03
02
FE
06
00
FD
07
01
FF
01
07
01
01
05
00
FE
FC
01
03
FA
01
05
FF
03
FE
FE
FE
02
03
FF
01
01
FA
01
03
F9
FF
FA
FD
FC
FA
FF
F7
F9
F8
02
05
02
FE
FF
01
05
02
00
FE
01
06
00
FE
FD
06
FE
FE
03
05
FF
FE
FE
FF
FE
FE
02
FF
FF
FB
00
01
FF
01
00
FA
FE
03
00
01
03
FC
01
FF
02
04
02
00
00
F9
FD
F9
FB
FE
04
FF
01
04
02
FE
FE
FB
05
00
03
FB
FC
03
01
00
FA
02
07
03
FD
FE
FC
FC
FF
05
FF
FA
FF
00
03
FC
FE
05
03
00
03
07
03
FC
FD
FE
09
06
00
04
03
FB
FD
01
FF
01
FE
03
01
FD
FA
FE
04
04
00
FC
FD
06
FB
FE
05
01
01
02
02
02
FD
FF
09
07
FE
00
FF
04
00
02
FB
02
09
00
FD
FF
FD
FC
02
FA
01
06
01
FB
02
00
00
05
00
01
01
03
FF
FF
01
02
03
FF
FF
FF
FB
02
00
FB
FC
FE
FE
F4
F8
01
00
FF
FB
03
01
04
01
03
FF
02
FF
05
04
FD
FE
00
FA
FE
FF
00
FE
FC
FC
02
00
FD
00
FF
00
03
01
01
00
FF
FE
FC
00
02
03
FA
FC
FE
05
01
FF
01
F9
FF
FD
02
FB
FF
FF
FE
01
04
FE
02
00
FF
01
FF
FE
FD
02
01
03
00
00
FA
FD
01
FB
FA
FE
01
03
05
05
01
FF
FD
FC
00
04
FB
FB
FF
FC
FF
FE
06
03
FC
01
FF
F8
F6
F9
FC
FD
00
02
FF
05
FF
FF
05
FD
04
00
00
FF
04
FE
03
01
03
FD
01
00
FF
FC
FE
02
FE
FE
00
06
FF
FD
04
01
00
00
00
01
FD
00
02
FD
F9
FF
05
02
FE
FA
FE
FC
01
FF
04
FD
FD
05
FD
FF
00
00
01
01
FC
06
04
FF
03
FD
FA
01
FF
FF
01
FE
FF
00
06
FE
FD
00
01
01
FC
02
FF
FF
FB
FF
FE
02
01
FF
FC
FE
FC
FB
FB
FF
01
FA
02
FE
03
03
04
00
FF
FE
02
05
06
FE
00
FC
02
FF
02
01
05
01
00
FF
03
07
00
FE
00
F9
FE
01
F4
FA
FC
FB
00
FD
00
FE
FE
04
FC
FD
FE
02
FC
FD
FD
FD
02
00
01
FE
FE
04
05
00
03
FE
FE
03
FD
02
02
FE
FF
06
05
FB
FD
FD
02
F9
03
00
FE
FF
03
FC
F9
FD
02
04
FD
FB
03
01
02
02
FC
F8
03
05
00
FD
F8
03
00
FF
FE
04
02
FE
FB
00
02
FB
FD
FC
FD
01
09
03
FD
FF
00
F9
FF
04
FE
FD
F1
FD
00
03
05
03
02
01
01
03
00
FC
01
FF
07
00
01
FC
03
06
FF
06
FF
FD
01
01
02
FC
00
07
04
FC
01
FF
FF
01
FF
00
FD
00
FF
01
FA
F9
01
04
FD
FE
FD
FA
FE
06
FE
F7
04
02
02
FF
03
00
FE
02
02
01
05
FC
FB
01
07
02
02
02
FD
FA
00
FE
00
FF
05
02
00
00
FC
FC
FE
FE
FC
01
01
03
05
07
FF
FE
F9
04
06
02
00
00
FE
FB
FE
00
FC
FF
00
FD
FE
05
00
02
FE
FE
02
03
00
03
01
02
03
FE
FD
01
00
FF
05
05
01
FF
FC
FF
02
03
00
F7
FC
03
FC
FF
F8
02
02
FB
FD
04
06
02
FD
FF
07
00
FD
FD
FE
01
03
FF
01
01
03
03
03
FE
FE
01
FF
FF
F8
02
FA
FC
FD
FB
04
02
01
FE
07
01
F8
FD
FE
FE
FC
F6
00
01
FD
FC
FE
04
03
FD
01
00
02
06
00
FC
FC
02
00
FB
FA
04
FC
F3
04
FA
02
FB
FC
00
03
FE
04
01
01
01
FF
01
05
02
F7
FF
01
02
FE
00
FC
01
05
00
FD
FF
FE
01
01
F6
04
01
01
FF
FA
04
FE
00
FE
FD
FB
FF
FD
FA
02
02
00
FD
00
03
04
00
00
FA
FA
03
FA
03
04
FC
F7
FA
04
06
FE
01
00
FB
02
04
FD
01
01
06
FE
FE
FE
FE
03
03
FE
04
FD
03
FD
06
FE
FD
FC
FD
FF
FC
FD
FF
04
FA
00
07
F9
F9
FF
FF
F9
03
00
FC
03
FF
FF
03
FE
05
07
00
00
FD
02
01
FE
FB
00
FE
FE
FE
FE
05
06
FD
FE
FF
00
FD
04
00
FE
F9
FE
04
FA
FF
FF
FE
FE
01
FE
FE
02
02
F7
F2
FF
00
FC
FC
F7
00
00
04
03
03
04
FE
01
04
02
01
FE
04
03
06
00
FA
FF
F8
FC
01
FC
FE
01
02
FF
FE
F9
00
01
08
FF
F9
00
03
05
F9
06
02
FE
FE
FD
FB
FE
FF
03
00
02
02
FD
00
FE
FC
01
03
FC
FA
00
02
06
FD
03
04
FE
FD
FC
00
FE
F7
F7
FC
00
FD
01
FC
FF
02
04
FB
FC
01
02
01
00
FD
FD
01
01
0A
FC
01
01
02
05
02
00
FB
FC
FB
FB
01
02
04
02
F6
01
00
02
02
FC
00
02
02
00
FF
04
05
05
FC
F6
00
03
06
03
03
01
FC
01
03
06
03
FC
01
01
FA
03
04
03
FD
FD
FC
FC
FD
FD
00
FF
01
03
01
FB
FE
FE
02
FD
02
02
FD
FF
FD
FA
FD
02
FE
02
FD
