FC
FE
03
02
FA
01
FF
FE
FD
02
FF
FD
06
04
FC
04
01
FC
04
04
FD
FF
FF
02
02
00
FD
00
01
FD
01
00
03
FF
FF
FE
FD
FA
01
02
FA
FC
06
00
00
05
FB
FB
05
00
FB
03
01
01
04
00
F9
01
01
00
03
02
00
03
09
FE
FC
FE
00
FA
00
FD
FF
01
04
01
FA
FE
06
03
FB
03
01
00
01
FE
FB
02
00
00
01
06
02
03
07
FD
FE
02
00
FB
00
FE
01
02
02
FE
FF
06
FE
01
00
FE
FA
03
00
FE
01
04
FD
FE
FE
04
FF
00
02
06
FF
02
FC
FB
F9
07
00
01
FC
FE
F3
02
00
FC
02
01
F8
00
03
00
FC
FD
FE
FD
