FF
01
00
FF
FD
FD
FE
03
FC
00
02
00
00
01
FF
FF
FF
00
03
02
FC
00
FF
01
03
01
FB
FE
00
FE
FB
01
FF
FD
FE
00
FE
03
01
01
FD
00
00
02
02
00
FE
FC
03
00
FC
FF
FB
00
03
02
FB
FE
FC
00
FC
00
FF
FF
FD
FF
02
02
01
04
FC
FD
03
FE
FF
01
02
00
04
03
FE
00
02
02
FF
FE
00
00
03
03
01
03
FF
01
FC
FF
00
05
02
01
FD
01
04
04
00
05
FD
01
04
FF
02
03
00
04
00
00
00
FE
FF
03
FD
00
02
FE
F5
FF
FF
FC
05
FD
FA
01
01
FB
01
01
F7
02
FF
FC
FF
02
FA
FF
FE
FE
04
FD
FC
FE
