01
00
01
01
FF
FA
FF
FB
FF
FC
FA
02
FC
00
02
FE
FC
01
FC
FC
00
FC
FE
FE
FE
01
FF
04
03
00
00
FF
FF
05
FA
FD
07
02
FB
02
FC
FF
02
FE
01
FD
FB
01
FD
FF
07
FF
FE
FC
01
FF
04
03
00
05
FD
FE
02
03
F9
00
04
03
F6
03
03
FF
02
FE
FD
01
03
00
00
FD
04
FA
01
FF
02
F9
09
FF
FC
01
00
02
01
01
FB
FB
04
04
FF
05
FE
02
06
05
F9
01
02
02
04
00
FB
FC
02
FA
FF
02
FC
FC
02
FD
FD
02
02
FE
FD
02
00
01
FD
02
FD
01
03
FF
00
FF
FF
04
03
03
03
04
00
01
04
02
01
02
02
FF
