00
00
FF
04
04
FD
FE
00
FD
FE
05
01
04
03
FD
01
03
FE
03
FF
FF
01
03
FA
02
FF
03
FE
00
FA
02
00
04
00
07
FC
01
FF
00
01
05
04
02
00
01
FE
FF
02
04
00
06
03
FF
FB
01
05
FE
02
00
FC
FD
FF
05
FD
07
01
FB
FC
00
00
FC
00
F4
FE
04
FB
FF
02
FD
FD
00
FE
FD
FC
00
FF
02
04
FD
06
01
FE
FB
FE
FD
04
FC
FD
FA
FC
02
FD
F9
FE
FC
FB
07
FE
FB
02
FE
FB
F8
01
02
02
FD
02
F2
07
FE
FD
FE
02
03
FF
F9
FE
FD
FA
07
00
F5
06
FF
FB
FE
FD
04
03
FE
01
F5
05
09
04
FF
06
F5
01
