00
01
FE
FF
01
FF
FD
02
FE
FE
00
FE
02
00
FB
01
01
01
05
00
01
FE
00
03
01
01
00
FF
04
01
FE
FC
02
00
01
F9
FD
FE
FE
01
01
FD
02
00
FE
00
FA
06
04
01
00
FE
FF
02
03
FE
02
00
01
03
FD
00
FF
FA
01
F7
00
FE
FB
02
FB
06
05
02
FC
01
F8
03
FF
00
FE
05
FC
FE
FF
F9
FE
02
01
02
F9
02
FA
FF
FA
FF
01
05
FC
06
F7
05
03
00
FC
06
FD
FF
00
FC
FD
FF
02
FF
00
FB
00
FF
FF
FC
06
04
00
01
F8
03
08
03
FE
06
FE
05
03
FC
03
02
FF
02
FE
FE
02
00
FF
FF
03
03
FC
03
02
FD
