00
01
00
02
FA
FF
01
01
FC
06
FB
FD
01
FD
FE
FD
FD
FD
FF
FC
FF
00
FD
FC
05
03
01
04
FD
00
FF
FB
01
FE
FE
FD
FE
F8
FF
FD
FC
FB
FF
FA
05
FF
FB
FD
00
FC
01
FE
FB
FF
04
02
FC
06
FD
FD
06
02
FB
00
04
00
05
FD
FE
00
04
FD
FF
FC
01
FD
03
FD
00
00
06
FE
01
FC
FF
00
02
06
04
02
00
00
07
04
01
00
04
06
03
FF
06
00
02
02
02
FE
05
FF
FF
03
FF
FB
03
01
00
03
01
00
FE
00
FE
00
07
00
FD
01
FF
00
03
01
FF
FF
FE
FF
FF
FD
03
FF
FA
01
06
FD
FB
02
FC
FF
03
FF
FC
FE
