00
FE
FF
FF
FF
FF
FF
03
00
00
01
01
00
FE
FD
02
01
FD
01
00
F9
03
FF
02
02
04
00
FD
04
FE
00
01
03
01
00
02
00
FE
03
FC
FE
FD
00
FE
00
FF
FD
FE
00
03
FE
03
FF
03
FE
04
00
FF
01
01
04
01
FE
FF
FA
FF
FF
FA
03
FD
F7
FE
01
00
04
FF
FC
FB
05
01
FE
03
02
01
06
03
FD
01
FC
02
03
FD
FD
04
01
FD
FD
FE
00
FC
FC
02
FE
F9
07
FE
F7
00
07
FD
01
07
FA
FC
04
04
FE
06
00
00
00
00
F7
00
01
FD
FF
FC
F9
FD
05
FA
01
FE
05
FA
FD
00
02
FD
03
03
FD
FE
04
00
FA
07
00
03
