01
FD
01
00
02
00
02
FE
00
01
02
FA
02
00
FE
01
01
FF
03
00
FE
FB
01
FD
00
02
02
FE
FE
00
02
04
02
00
03
FE
FD
04
FF
FD
02
02
00
02
FE
00
FA
03
01
FF
01
FE
FD
00
01
00
FC
FD
FB
03
FC
FF
00
01
FE
01
01
00
FD
01
FF
02
FE
03
01
03
FC
FE
FF
01
02
03
FF
FF
04
FC
FD
03
00
01
FE
02
02
FB
FC
03
01
03
01
03
FE
FF
00
FC
03
02
00
FF
FF
FD
01
02
FF
04
03
02
00
03
FD
02
00
00
FF
02
03
02
FF
FD
01
FE
FE
04
FB
FE
FE
01
FB
00
FE
01
03
01
FD
00
FF
00
01
04
FF
00
