03
04
02
01
01
06
06
FE
00
05
00
01
FE
FC
00
FD
01
00
FF
FB
02
FB
FD
FE
01
F9
FF
02
FB
FC
02
04
00
01
FB
04
FF
FE
FC
03
FF
02
FF
FB
01
01
FF
FB
FD
00
FE
FF
01
FC
FD
01
FD
FE
07
FA
FF
00
FA
03
FF
00
FC
FC
FA
FD
05
FD
FA
02
00
FB
09
FE
00
05
FE
FE
08
00
FD
04
04
FD
06
01
00
FD
FB
00
05
FC
FC
01
FD
FD
05
03
FD
03
02
FF
05
04
01
07
04
FB
FF
05
FD
05
04
00
FB
05
FE
FF
FB
FF
02
01
FE
FF
03
FF
FF
05
02
06
02
FF
FB
04
FE
04
04
03
FE
01
00
FE
FF
04
FF
FC
