FB
03
FD
FE
00
01
03
02
FF
01
03
FF
02
00
00
FF
03
FF
03
03
02
FD
FF
02
FD
00
02
01
FF
01
FD
FD
FF
02
00
01
02
02
03
02
FD
04
03
01
01
03
01
FF
05
01
01
FF
02
FE
02
FE
FF
00
FC
02
FB
FE
00
FC
FF
05
FD
FF
06
00
FB
03
FC
FC
03
00
00
FD
01
FE
FC
03
00
FF
03
FF
FE
FE
01
FC
00
FF
FD
01
05
01
FA
FE
FD
01
01
01
FA
FE
FE
FE
00
02
FE
02
02
02
01
FE
FD
02
00
03
01
FF
FB
01
01
FC
02
00
00
04
FE
00
05
03
00
03
FE
FF
FD
04
FE
02
FF
03
FE
FF
FD
00
FF
00
FA
03
