01
02
FD
02
FA
FF
02
FF
F9
00
FB
FF
00
01
FE
FB
FF
FD
02
00
02
01
03
FF
03
04
00
FE
02
03
06
FF
FB
04
FF
FE
03
FE
FC
02
FF
02
00
FD
FD
FC
02
FF
03
01
FD
FD
02
FE
01
00
FE
00
06
00
05
01
FD
05
FD
03
04
05
00
03
03
FE
02
04
01
FC
01
FF
00
02
FF
FF
02
04
00
02
FF
FC
FF
04
FF
FB
04
04
FF
02
FF
FF
01
02
FC
FF
FC
02
06
FF
02
FE
01
FD
03
FE
FD
FE
FC
FD
04
02
F8
04
FE
FB
00
FD
FA
03
00
FA
02
03
FD
FD
FE
FB
FF
FE
FA
00
00
FD
01
02
FB
FF
FD
FD
FA
04
FD
01
