FC
01
07
FF
FF
03
00
02
04
02
03
03
01
02
03
01
02
00
06
04
03
02
07
03
00
04
04
01
00
FF
FE
FB
08
FE
F9
01
00
FA
07
FD
F9
FF
FC
FE
07
00
F8
01
FD
FD
07
FF
FC
01
01
04
00
00
00
03
03
FF
F7
FD
04
FB
01
FF
FD
FD
04
FA
F8
FA
02
F7
03
FB
F8
FE
06
FD
FC
01
FE
FD
05
FD
FC
01
FF
FF
FE
02
03
FF
02
03
F8
FD
03
FC
FC
03
F8
FB
03
FE
00
FE
FA
F8
05
00
FF
FA
02
FC
FF
00
04
FF
00
01
05
01
01
03
02
03
02
FE
00
03
FF
FE
02
FE
FE
04
FB
FC
02
00
04
00
FB
02
01
FC
