FA
FB
FE
FA
FF
FD
FE
00
01
01
FB
00
04
02
FD
06
FB
02
05
FE
FB
04
FE
03
02
FC
FF
FD
FE
FF
F9
FE
FD
FA
F9
FD
04
FE
FB
03
F6
03
01
FF
FA
06
FF
05
00
FB
01
FE
FF
FC
FE
FC
00
FD
02
FD
FC
FB
FF
FB
FD
02
04
FE
FB
04
00
03
01
FC
FF
03
00
01
FF
01
FE
FE
00
FE
00
FF
02
00
02
01
01
FD
FC
00
FE
FF
FF
FC
FE
03
01
03
00
01
FB
FE
00
04
FE
05
FF
FE
FC
00
02
02
03
04
FD
01
FE
03
01
02
FD
02
00
02
02
04
FC
03
00
FF
04
00
FB
00
04
06
FE
03
FE
00
04
04
FE
03
00
01
