06
02
02
01
07
FD
01
00
FC
FD
07
FC
02
01
FE
FC
FE
FB
FE
FA
00
FE
FF
FD
FF
FD
FC
FE
FD
FE
02
02
03
03
00
FC
06
03
FC
04
02
FC
03
02
FC
FD
02
FE
FD
01
00
FF
00
FE
01
FF
F9
FF
01
FB
FD
FD
FE
FD
FA
FE
00
01
FE
03
FE
03
04
FF
FB
04
FF
FF
05
FF
FE
02
00
FF
04
03
00
01
04
01
FC
01
FF
00
FC
01
FF
03
FC
FF
FA
03
01
00
FE
03
F9
00
06
01
FE
00
FF
01
01
01
01
02
04
01
FD
01
FF
05
FF
03
00
06
01
04
FC
04
00
05
02
03
FF
06
02
00
FE
03
FA
04
01
FD
FF
02
FD
02
