FC
02
FF
FE
01
00
00
FD
FA
01
03
01
FE
00
FE
FC
02
F9
01
00
00
FE
02
FC
FF
03
FE
FF
00
FE
00
04
02
00
05
03
05
06
FB
03
06
00
04
04
02
FB
09
03
FF
05
FE
FE
05
02
FE
00
03
FD
03
02
00
FF
06
00
FD
01
FD
05
07
03
00
00
00
04
06
00
FF
03
01
03
04
00
02
05
FE
00
00
02
01
FD
00
FC
01
00
FB
02
FA
FB
06
FE
FF
FE
FE
01
03
FE
FD
FD
01
FB
FE
FE
FD
FD
FB
FC
FF
FC
FC
02
FF
FD
FE
FE
04
00
FC
FD
00
F8
02
FE
01
FD
FF
FE
FF
FC
02
00
FC
FE
00
02
FE
00
FC
FE
FE
02
