FC
03
FA
00
00
FF
FB
FF
02
FE
FC
03
FF
00
03
FE
FC
FE
00
FF
FF
FF
FD
FF
FF
FC
FF
02
FF
FF
04
02
FD
02
03
FB
06
01
FA
01
05
FC
00
02
00
FE
00
01
FD
FD
02
FE
FF
FC
00
FF
FF
01
04
FC
01
01
06
01
00
03
00
03
00
06
07
FE
03
07
00
02
07
00
FE
06
FE
FF
06
01
01
04
FE
01
05
02
F9
03
07
FE
FC
05
FC
FE
07
00
FA
03
FE
00
03
01
FC
04
00
FF
06
FF
FF
00
FC
02
06
FC
FA
02
FC
FD
FD
00
04
01
FD
FE
FF
FC
FF
01
FC
00
04
FF
FC
03
00
FF
FE
02
FE
00
FE
FE
FC
FD
00
FE
