07
FD
FE
00
FD
05
02
FC
F6
FF
0B
FE
00
F7
F7
04
08
05
FE
01
06
01
05
01
FE
F8
FD
FC
02
01
00
00
05
01
FA
0A
07
FF
FC
06
07
07
FD
FD
06
FC
FF
06
08
FD
01
FF
08
08
FF
07
06
02
0A
09
FE
FD
00
FF
08
F6
F9
F6
FC
07
00
F9
FE
F6
FD
07
08
05
FC
F8
07
04
FE
F9
FB
06
09
03
FF
FB
FC
09
00
04
FC
FE
02
06
04
01
FE
FE
00
F8
FC
01
F7
FA
FC
FA
06
FB
F8
FB
FB
00
08
06
02
07
06
06
07
07
0A
06
03
02
FF
06
FC
FE
09
02
01
06
02
09
FF
06
02
0A
FD
FB
00
08
FE
F7
F7
F8
