FC
02
FF
FE
01
00
00
FD
FA
01
03
01
FE
00
FE
FC
02
F9
01
00
00
FE
02
FC
FF
03
FE
FF
00
FE
00
04
02
00
05
03
05
06
FB
03
06
00
04
04
02
FB
09
03
FF
05
FE
FE
05
02
FE
00
03
FD
03
02
00
FF
06
00
FD
01
FD
05
07
03
00
00
00
04
06
00
FF
03
01
03
04
00
02
05
FE
00
00
02
01
FD
00
FC
01
00
FB
02
FA
FB
06
FE
FF
FE
FE
01
03
FE
FD
FD
01
FB
FE
FE
FD
FD
FB
FC
FF
FC
FC
02
FF
FD
FE
FE
04
00
FC
FD
00
F8
02
FE
01
FD
FF
FE
FF
FC
02
00
FC
FE
00
02
FE
00
FC
FE
FE
02
01
FD
01
00
02
00
02
FE
00
01
02
FA
02
00
FE
01
01
FF
03
00
FE
FB
01
FD
00
02
02
FE
FE
00
02
04
02
00
03
FE
FD
04
FF
FD
02
02
00
02
FE
00
FA
03
01
FF
01
FE
FD
00
01
00
FC
FD
FB
03
FC
FF
00
01
FE
01
01
00
FD
01
FF
02
FE
03
01
03
FC
FE
FF
01
02
03
FF
FF
04
FC
FD
03
00
01
FE
02
02
FB
FC
03
01
03
01
03
FE
FF
00
FC
03
02
00
FF
FF
FD
01
02
FF
04
03
02
00
03
FD
02
00
00
FF
02
03
02
FF
FD
01
FE
FE
04
FB
FE
FE
01
FB
00
FE
01
03
01
FD
00
FF
00
01
04
FF
00
00
00
FF
04
04
FD
FE
00
FD
FE
05
01
04
03
FD
01
03
FE
03
FF
FF
01
03
FA
02
FF
03
FE
00
FA
02
00
04
00
07
FC
01
FF
00
01
05
04
02
00
01
FE
FF
02
04
00
06
03
FF
FB
01
05
FE
02
00
FC
FD
FF
05
FD
07
01
FB
FC
00
00
FC
00
F4
FE
04
FB
FF
02
FD
FD
00
FE
FD
FC
00
FF
02
04
FD
06
01
FE
FB
FE
FD
04
FC
FD
FA
FC
02
FD
F9
FE
FC
FB
07
FE
FB
02
FE
FB
F8
01
02
02
FD
02
F2
07
FE
FD
FE
02
03
FF
F9
FE
FD
FA
07
00
F5
06
FF
FB
FE
FD
04
03
FE
01
F5
05
09
04
FF
06
F5
01
FF
01
00
FF
FD
FD
FE
03
FC
00
02
00
00
01
FF
FF
FF
00
03
02
FC
00
FF
01
03
01
FB
FE
00
FE
FB
01
FF
FD
FE
00
FE
03
01
01
FD
00
00
02
02
00
FE
FC
03
00
FC
FF
FB
00
03
02
FB
FE
FC
00
FC
00
FF
FF
FD
FF
02
02
01
04
FC
FD
03
FE
FF
01
02
00
04
03
FE
00
02
02
FF
FE
00
00
03
03
01
03
FF
01
FC
FF
00
05
02
01
FD
01
04
04
00
05
FD
01
04
FF
02
03
00
04
00
00
00
FE
FF
03
FD
00
02
FE
F5
FF
FF
FC
05
FD
FA
01
01
FB
01
01
F7
02
FF
FC
FF
02
FA
FF
FE
FE
04
FD
FC
FE
00
01
00
02
FA
FF
01
01
FC
06
FB
FD
01
FD
FE
FD
FD
FD
FF
FC
FF
00
FD
FC
05
03
01
04
FD
00
FF
FB
01
FE
FE
FD
FE
F8
FF
FD
FC
FB
FF
FA
05
FF
FB
FD
00
FC
01
FE
FB
FF
04
02
FC
06
FD
FD
06
02
FB
00
04
00
05
FD
FE
00
04
FD
FF
FC
01
FD
03
FD
00
00
06
FE
01
FC
FF
00
02
06
04
02
00
00
07
04
01
00
04
06
03
FF
06
00
02
02
02
FE
05
FF
FF
03
FF
FB
03
01
00
03
01
00
FE
00
FE
00
07
00
FD
01
FF
00
03
01
FF
FF
FE
FF
FF
FD
03
FF
FA
01
06
FD
FB
02
FC
FF
03
FF
FC
FE
01
02
FD
02
FA
FF
02
FF
F9
00
FB
FF
00
01
FE
FB
FF
FD
02
00
02
01
03
FF
03
04
00
FE
02
03
06
FF
FB
04
FF
FE
03
FE
FC
02
FF
02
00
FD
FD
FC
02
FF
03
01
FD
FD
02
FE
01
00
FE
00
06
00
05
01
FD
05
FD
03
04
05
00
03
03
FE
02
04
01
FC
01
FF
00
02
FF
FF
02
04
00
02
FF
FC
FF
04
FF
FB
04
04
FF
02
FF
FF
01
02
FC
FF
FC
02
06
FF
02
FE
01
FD
03
FE
FD
FE
FC
FD
04
02
F8
04
FE
FB
00
FD
FA
03
00
FA
02
03
FD
FD
FE
FB
FF
FE
FA
00
00
FD
01
02
FB
FF
FD
FD
FA
04
FD
01
FA
FB
FE
FA
FF
FD
FE
00
01
01
FB
00
04
02
FD
06
FB
02
05
FE
FB
04
FE
03
02
FC
FF
FD
FE
FF
F9
FE
FD
FA
F9
FD
04
FE
FB
03
F6
03
01
FF
FA
06
FF
05
00
FB
01
FE
FF
FC
FE
FC
00
FD
02
FD
FC
FB
FF
FB
FD
02
04
FE
FB
04
00
03
01
FC
FF
03
00
01
FF
01
FE
FE
00
FE
00
FF
02
00
02
01
01
FD
FC
00
FE
FF
FF
FC
FE
03
01
03
00
01
FB
FE
00
04
FE
05
FF
FE
FC
00
02
02
03
04
FD
01
FE
03
01
02
FD
02
00
02
02
04
FC
03
00
FF
04
00
FB
00
04
06
FE
03
FE
00
04
04
FE
03
00
01
01
00
01
01
FF
FA
FF
FB
FF
FC
FA
02
FC
00
02
FE
FC
01
FC
FC
00
FC
FE
FE
FE
01
FF
04
03
00
00
FF
FF
05
FA
FD
07
02
FB
02
FC
FF
02
FE
01
FD
FB
01
FD
FF
07
FF
FE
FC
01
FF
04
03
00
05
FD
FE
02
03
F9
00
04
03
F6
03
03
FF
02
FE
FD
01
03
00
00
FD
04
FA
01
FF
02
F9
09
FF
FC
01
00
02
01
01
FB
FB
04
04
FF
05
FE
02
06
05
F9
01
02
02
04
00
FB
FC
02
FA
FF
02
FC
FC
02
FD
FD
02
02
FE
FD
02
00
01
FD
02
FD
01
03
FF
00
FF
FF
04
03
03
03
04
00
01
04
02
01
02
02
FF
00
01
FE
FF
01
FF
FD
02
FE
FE
00
FE
02
00
FB
01
01
01
05
00
01
FE
00
03
01
01
00
FF
04
01
FE
FC
02
00
01
F9
FD
FE
FE
01
01
FD
02
00
FE
00
FA
06
04
01
00
FE
FF
02
03
FE
02
00
01
03
FD
00
FF
FA
01
F7
00
FE
FB
02
FB
06
05
02
FC
01
F8
03
FF
00
FE
05
FC
FE
FF
F9
FE
02
01
02
F9
02
FA
FF
FA
FF
01
05
FC
06
F7
05
03
00
FC
06
FD
FF
00
FC
FD
FF
02
FF
00
FB
00
FF
FF
FC
06
04
00
01
F8
03
08
03
FE
06
FE
05
03
FC
03
02
FF
02
FE
FE
02
00
FF
FF
03
03
FC
03
02
FD
FB
03
FD
FE
00
01
03
02
FF
01
03
FF
02
00
00
FF
03
FF
03
03
02
FD
FF
02
FD
00
02
01
FF
01
FD
FD
FF
02
00
01
02
02
03
02
FD
04
03
01
01
03
01
FF
05
01
01
FF
02
FE
02
FE
FF
00
FC
02
FB
FE
00
FC
FF
05
FD
FF
06
00
FB
03
FC
FC
03
00
00
FD
01
FE
FC
03
00
FF
03
FF
FE
FE
01
FC
00
FF
FD
01
05
01
FA
FE
FD
01
01
01
FA
FE
FE
FE
00
02
FE
02
02
02
01
FE
FD
02
00
03
01
FF
FB
01
01
FC
02
00
00
04
FE
00
05
03
00
03
FE
FF
FD
04
FE
02
FF
03
FE
FF
FD
00
FF
00
FA
03
FC
03
FA
00
00
FF
FB
FF
02
FE
FC
03
FF
00
03
FE
FC
FE
00
FF
FF
FF
FD
FF
FF
FC
FF
02
FF
FF
04
02
FD
02
03
FB
06
01
FA
01
05
FC
00
02
00
FE
00
01
FD
FD
02
FE
FF
FC
00
FF
FF
01
04
FC
01
01
06
01
00
03
00
03
00
06
07
FE
03
07
00
02
07
00
FE
06
FE
FF
06
01
01
04
FE
01
05
02
F9
03
07
FE
FC
05
FC
FE
07
00
FA
03
FE
00
03
01
FC
04
00
FF
06
FF
FF
00
FC
02
06
FC
FA
02
FC
FD
FD
00
04
01
FD
FE
FF
FC
FF
01
FC
00
04
FF
FC
03
00
FF
FE
02
FE
00
FE
FE
FC
FD
00
FE
FC
01
07
FF
FF
03
00
02
04
02
03
03
01
02
03
01
02
00
06
04
03
02
07
03
00
04
04
01
00
FF
FE
FB
08
FE
F9
01
00
FA
07
FD
F9
FF
FC
FE
07
00
F8
01
FD
FD
07
FF
FC
01
01
04
00
00
00
03
03
FF
F7
FD
04
FB
01
FF
FD
FD
04
FA
F8
FA
02
F7
03
FB
F8
FE
06
FD
FC
01
FE
FD
05
FD
FC
01
FF
FF
FE
02
03
FF
02
03
F8
FD
03
FC
FC
03
F8
FB
03
FE
00
FE
FA
F8
05
00
FF
FA
02
FC
FF
00
04
FF
00
01
05
01
01
03
02
03
02
FE
00
03
FF
FE
02
FE
FE
04
FB
FC
02
00
04
00
FB
02
01
FC
03
04
02
01
01
06
06
FE
00
05
00
01
FE
FC
00
FD
01
00
FF
FB
02
FB
FD
FE
01
F9
FF
02
FB
FC
02
04
00
01
FB
04
FF
FE
FC
03
FF
02
FF
FB
01
01
FF
FB
FD
00
FE
FF
01
FC
FD
01
FD
FE
07
FA
FF
00
FA
03
FF
00
FC
FC
FA
FD
05
FD
FA
02
00
FB
09
FE
00
05
FE
FE
08
00
FD
04
04
FD
06
01
00
FD
FB
00
05
FC
FC
01
FD
FD
05
03
FD
03
02
FF
05
04
01
07
04
FB
FF
05
FD
05
04
00
FB
05
FE
FF
FB
FF
02
01
FE
FF
03
FF
FF
05
02
06
02
FF
FB
04
FE
04
04
03
FE
01
00
FE
FF
04
FF
FC
06
02
02
01
07
FD
01
00
FC
FD
07
FC
02
01
FE
FC
FE
FB
FE
FA
00
FE
FF
FD
FF
FD
FC
FE
FD
FE
02
02
03
03
00
FC
06
03
FC
04
02
FC
03
02
FC
FD
02
FE
FD
01
00
FF
00
FE
01
FF
F9
FF
01
FB
FD
FD
FE
FD
FA
FE
00
01
FE
03
FE
03
04
FF
FB
04
FF
FF
05
FF
FE
02
00
FF
04
03
00
01
04
01
FC
01
FF
00
FC
01
FF
03
FC
FF
FA
03
01
00
FE
03
F9
00
06
01
FE
00
FF
01
01
01
01
02
04
01
FD
01
FF
05
FF
03
00
06
01
04
FC
04
00
05
02
03
FF
06
02
00
FE
03
FA
04
01
FD
FF
02
FD
02
FC
FE
03
02
FA
01
FF
FE
FD
02
FF
FD
06
04
FC
04
01
FC
04
04
FD
FF
FF
02
02
00
FD
00
01
FD
01
00
03
FF
FF
FE
FD
FA
01
02
FA
FC
06
00
00
05
FB
FB
05
00
FB
03
01
01
04
00
F9
01
01
00
03
02
00
03
09
FE
FC
FE
00
FA
00
FD
FF
01
04
01
FA
FE
06
03
FB
03
01
00
01
FE
FB
02
00
00
01
06
02
03
07
FD
FE
02
00
FB
00
FE
01
02
02
FE
FF
06
FE
01
00
FE
FA
03
00
FE
01
04
FD
FE
FE
04
FF
00
02
06
FF
02
FC
FB
F9
07
00
01
FC
FE
F3
02
00
FC
02
01
F8
00
03
00
FC
FD
FE
FD
00
FE
FF
FF
FF
FF
FF
03
00
00
01
01
00
FE
FD
02
01
FD
01
00
F9
03
FF
02
02
04
00
FD
04
FE
00
01
03
01
00
02
00
FE
03
FC
FE
FD
00
FE
00
FF
FD
FE
00
03
FE
03
FF
03
FE
04
00
FF
01
01
04
01
FE
FF
FA
FF
FF
FA
03
FD
F7
FE
01
00
04
FF
FC
FB
05
01
FE
03
02
01
06
03
FD
01
FC
02
03
FD
FD
04
01
FD
FD
FE
00
FC
FC
02
FE
F9
07
FE
F7
00
07
FD
01
07
FA
FC
04
04
FE
06
00
00
00
00
F7
00
01
FD
FF
FC
F9
FD
05
FA
01
FE
05
FA
FD
00
02
FD
03
03
FD
FE
04
00
FA
07
00
03
