FE
00
05
00
01
FF
FE
FE
FD
FF
FC
FF
FF
01
00
01
FC
FD
02
04
00
01
02
FD
03
FE
FD
F9
01
04
FF
02
03
02
FA
FE
01
00
FE
FE
03
FF
01
FE
03
FE
01
00
02
00
FA
FD
00
03
01
FE
FD
03
03
FF
03
FF
FF
FE
01
FF
03
FD
03
FE
00
02
FC
FD
00
02
01
00
01
06
FD
FE
04
00
FF
02
FD
FE
01
00
FB
FF
FE
01
01
03
FD
00
FF
00
04
04
00
01
05
FC
FF
FE
02
00
02
01
FE
04
00
02
FD
04
FE
01
FF
FE
FF
03
02
04
00
05
02
00
00
01
00
FD
FF
01
FE
01
FE
FE
FB
02
02
00
00
FE
02
03
03
03
FF
FD
FB
FF
01
02
FB
03
FD
FD
00
03
02
FF
FE
05
FD
FA
FF
FD
FC
01
01
FF
03
00
FF
02
03
02
FE
FD
03
03
02
03
00
01
FE
FE
04
FF
FC
02
01
FE
03
FD
03
04
02
FF
00
FD
FA
FF
01
FD
FE
FE
FE
FC
FE
04
FE
01
02
02
FF
00
FD
01
01
04
01
00
FD
02
01
FF
02
FD
01
01
01
FE
FB
02
00
02
FE
04
04
02
03
FE
02
00
00
00
FE
00
FC
01
FE
FE
FA
03
FF
00
04
FD
02
FD
07
FE
FD
FA
02
FE
04
00
F9
FD
FF
00
FF
FD
03
01
02
FF
FB
FB
FD
04
FE
FC
FB
FF
FE
02
05
02
03
03
02
01
02
FE
00
02
01
FD
FE
01
00
01
04
00
03
03
02
01
FE
FC
01
01
01
FD
03
04
02
02
03
FE
02
FB
FD
01
03
02
FC
01
02
FF
FE
00
00
01
01
FF
01
02
04
FE
FF
00
FE
02
02
02
03
FE
FB
01
00
02
04
00
FC
03
04
00
00
01
03
FF
FF
02
04
03
02
03
FC
00
FC
FD
05
FF
01
FF
02
FB
03
FE
03
01
FE
FD
FE
02
01
01
00
02
00
FE
FD
FD
FC
FE
FE
05
00
01
FD
FD
FF
FF
00
FC
01
01
FE
FF
FF
02
01
FF
02
03
01
FB
FF
FE
FF
00
04
FE
03
F9
FF
03
01
04
02
02
04
FE
00
01
00
00
FF
FD
03
01
02
04
08
04
00
FF
FF
05
03
05
03
FE
03
FE
05
04
03
03
01
03
FF
01
01
05
04
02
01
FF
00
01
FF
04
04
02
01
FD
FF
03
FE
FE
FD
03
01
FA
01
01
FD
00
03
FD
03
FF
00
02
FB
FF
00
00
01
FE
02
01
FB
FA
FF
00
05
FE
02
FE
FE
FD
00
01
FF
00
02
FE
FF
03
FD
01
07
03
00
FD
FE
03
FF
03
00
04
00
01
FF
04
02
FF
03
01
00
03
01
FF
FF
FE
FC
FD
FF
04
03
05
00
00
FF
FE
01
FF
FF
FE
04
FE
FD
FD
FF
00
FE
01
00
02
03
FC
FA
FE
00
FC
03
FF
FA
FE
00
FE
FE
FD
00
01
FE
FF
FC
FA
02
02
03
00
FD
00
FD
00
FB
02
FE
01
FC
01
FD
FF
02
FE
01
FC
FD
FD
05
00
FF
FE
02
00
FF
FE
02
FF
04
02
FF
01
01
FE
00
FF
02
04
FC
03
00
04
FF
FC
04
01
01
FF
01
00
00
00
00
FD
FB
FF
FE
02
06
FF
02
02
03
03
FF
FF
FF
FF
00
00
F9
00
FF
FE
FD
00
FE
04
01
02
FF
FC
FF
00
FE
02
01
00
00
00
01
FD
00
01
FF
02
00
FF
02
00
00
FE
01
03
FD
02
FF
00
FF
FF
FC
02
FE
01
02
02
02
03
00
FF
00
04
03
03
05
FB
FE
FF
06
FE
FF
02
02
00
FE
01
00
FD
07
01
02
FF
FF
02
01
00
FE
01
00
01
04
00
FF
FE
FE
04
02
03
FB
FE
04
FF
FE
FE
00
03
00
FD
03
FF
FF
00
01
02
FD
01
03
FE
02
FD
03
FD
00
02
FD
FE
FE
FE
FE
FF
01
FE
02
FF
FF
FD
FD
FC
01
00
03
FD
FC
03
FF
01
FD
FE
00
02
00
FD
FE
FD
00
FD
04
03
01
01
FF
00
FC
00
01
01
FF
FE
FF
02
00
FD
02
FD
FD
FF
FE
FE
FE
00
FC
02
FD
FC
03
00
FD
FD
02
FD
00
FF
FC
FE
FF
FD
FE
02
00
FD
01
FE
FD
00
04
FF
FC
FD
FF
00
00
FE
04
02
FF
01
FD
04
01
01
FC
02
00
00
00
00
FF
00
01
FD
FF
00
FF
00
FE
01
02
FE
FE
FD
02
FD
00
FC
FD
02
00
FD
FF
00
01
02
FC
FF
FD
FE
02
FC
01
FC
01
01
02
FF
00
FF
FD
01
03
FC
00
00
FE
FE
02
FD
02
FE
02
FD
FF
02
FD
00
01
FD
00
01
02
FD
01
00
FC
01
FF
02
02
FF
03
FD
00
00
01
03
00
00
01
FE
FD
04
04
FF
FD
FF
00
01
FF
02
FE
00
01
FD
00
01
02
FC
00
FF
FC
03
FF
01
03
02
01
00
03
FD
00
FC
03
00
FF
02
FE
FC
FD
FF
FE
FF
02
FE
FE
01
FD
FE
FE
FD
FD
FC
01
FF
FF
FD
04
FC
FE
FF
FD
02
02
FF
FD
00
01
FC
FC
FD
FE
FB
FD
FC
00
FD
02
FF
01
FE
FC
01
FD
FD
00
01
FE
02
FE
FF
02
FF
01
FF
00
00
00
FE
00
03
00
01
03
FE
02
FF
00
03
FF
FC
00
01
00
FF
FF
02
FE
FD
02
01
01
FE
01
00
00
00
02
FD
00
01
FD
00
FE
01
FD
02
01
01
01
FE
FF
01
02
02
00
01
01
FC
FF
02
FF
FD
FC
FF
FE
FE
01
FF
00
01
FF
01
04
FE
FD
FF
FF
02
FC
01
FF
01
01
02
01
FF
FF
FD
01
02
01
02
FD
02
02
FF
03
FE
FC
FE
FE
FE
FD
FD
FF
FD
FC
02
02
01
02
FF
FF
FF
FE
FE
03
FF
00
FE
03
00
02
FF
FF
FF
02
02
FF
FE
FC
FE
FC
00
01
01
04
FD
FE
03
FD
FF
03
FF
01
FF
04
04
00
00
02
FB
02
02
01
01
FE
FF
00
FF
02
FD
01
00
FE
FE
02
FC
FE
02
01
02
FC
02
03
02
02
FE
03
01
FF
02
01
F7
00
FF
01
04
FA
FF
03
FE
01
04
00
01
04
FD
FE
FD
02
00
02
02
FE
05
01
04
00
FF
03
01
06
FF
FE
FB
02
02
02
09
FD
04
04
03
03
01
01
FF
00
02
FD
04
01
00
05
FF
02
01
01
03
00
FE
FD
02
02
01
04
FE
FC
04
FE
04
FF
00
01
FD
02
03
00
FE
00
FE
FD
FB
02
03
FE
FF
00
02
00
FD
00
03
00
FD
05
01
00
F9
00
FE
FF
00
FE
05
FF
FD
FB
FF
01
03
02
00
FE
FC
FF
FF
04
FF
03
01
FF
01
04
FE
01
FD
00
02
03
03
00
02
00
00
FF
00
03
04
01
01
03
01
03
FF
03
FD
FE
FF
02
04
01
01
FA
03
03
02
02
02
00
00
02
FF
03
FE
01
03
01
02
FB
01
FE
03
02
FE
04
01
00
FE
02
00
02
FE
02
FC
00
FE
FD
01
04
00
03
01
02
03
00
02
01
FF
03
02
04
FE
00
FE
FF
03
00
00
FF
01
01
FE
00
FB
00
FF
08
FD
00
00
03
01
01
05
FD
03
FD
FD
03
02
FF
FF
FD
00
00
03
FF
04
00
02
00
02
FD
01
02
03
02
03
FD
01
01
FF
00
FE
01
03
01
FD
FB
FC
01
00
00
01
03
00
FB
01
00
02
FE
FF
FD
01
FE
FD
FE
00
FF
01
FD
00
00
FA
FC
FF
FC
FD
F9
FD
FD
FC
00
FD
FA
01
03
03
02
FD
00
FB
00
00
FE
00
FA
FD
01
FE
FF
02
FD
02
04
02
05
05
05
FD
FF
FE
F9
02
FD
00
01
FF
FF
00
01
04
03
03
00
02
02
00
FE
00
01
03
02
FD
FF
01
FC
FE
04
FE
02
FC
01
FE
FE
00
02
01
FE
01
FF
FC
01
00
01
00
FF
FE
01
00
00
02
00
03
FD
03
01
FF
03
00
02
00
FD
FE
FE
FE
04
00
02
FE
01
FF
02
00
01
FE
FF
FF
01
04
FF
FC
03
01
01
FE
00
04
02
02
04
01
02
02
FC
FE
FE
02
FE
04
01
00
02
02
02
00
FF
01
03
00
02
01
01
02
FE
02
00
08
00
03
00
FC
03
00
01
00
01
04
FB
00
01
01
03
FE
FB
03
00
02
03
00
FE
FE
00
03
00
FE
02
02
FE
FE
FF
03
FD
FE
02
02
00
FD
FF
00
01
00
FE
02
01
00
FE
04
04
03
01
01
FF
00
FF
01
FF
00
FF
02
02
FE
00
FE
03
00
FC
FF
01
02
00
02
03
FF
01
01
FF
07
FD
FE
05
04
04
FE
02
FF
02
02
01
00
FF
02
02
01
04
03
04
00
FE
FE
FD
02
04
04
00
03
00
01
00
01
05
02
03
FF
05
05
FF
00
02
00
02
02
03
FE
03
00
FF
FF
FE
03
03
00
01
00
00
03
00
FC
FF
02
02
04
01
02
FF
01
FC
FF
FF
00
01
01
01
FD
04
03
03
01
02
04
04
FE
FF
02
00
FA
01
FE
03
FF
03
00
03
04
02
03
00
04
01
FE
06
FC
07
FE
02
02
01
02
04
FF
04
00
FF
03
FE
03
FE
02
01
02
01
FE
FE
FC
FD
FF
02
FF
FB
FF
FC
00
04
FB
05
01
FB
01
00
01
FC
00
FF
FD
FE
03
00
FE
FF
FD
FD
02
FD
FF
01
01
00
02
FE
FF
02
00
FD
01
FF
FE
06
FE
FF
FE
FB
FD
02
01
03
03
FF
FF
01
02
03
FC
04
02
FD
00
FB
FF
05
00
FF
FF
02
FF
02
FF
04
02
03
01
FD
FF
04
FD
00
03
FF
00
02
FD
02
00
03
FF
FE
00
FF
FD
01
01
FE
04
04
00
05
FE
06
FD
02
FF
FF
03
FE
03
FE
FD
03
01
00
05
02
00
FE
00
01
FC
FF
04
03
00
01
00
01
02
02
FF
FC
FF
04
04
FF
00
01
FD
04
FC
FF
00
FF
00
03
00
FE
01
02
00
FD
FF
00
FC
04
FF
01
02
FF
00
FE
03
FF
01
01
02
00
01
FE
02
FD
02
03
FD
01
FE
FE
FF
00
FD
03
01
FF
02
01
FF
FE
FD
FE
03
02
03
FF
02
FE
FE
02
01
02
FD
00
02
02
01
FC
00
00
00
FF
01
FE
FE
FF
FF
FC
02
04
01
00
FF
FD
FD
FD
02
04
01
02
03
02
FE
FD
03
FE
FD
FD
02
FD
FF
FF
00
FE
FE
03
01
FE
FD
FF
FE
03
01
FD
FE
FE
FF
FD
02
FE
03
FD
FF
FF
02
00
01
02
FE
00
FF
FF
00
FE
03
00
FC
00
FD
03
FE
FF
FF
FE
FD
FC
04
02
00
FF
FE
00
FE
01
01
00
00
FD
03
FD
03
01
FF
FF
FE
FD
00
03
FF
FE
03
FB
00
FF
00
FF
FF
00
FD
00
02
FC
FC
04
FE
FD
02
00
04
01
03
02
02
FF
04
FD
FE
01
01
01
FF
FD
FE
FE
00
01
FE
FD
04
02
01
01
03
FE
02
00
03
FF
00
FF
FE
FF
02
FB
03
00
FF
00
FE
FF
00
01
FF
FE
FD
06
FD
FC
00
00
FD
01
FC
01
FE
FC
FD
01
02
FE
FD
01
FE
02
04
00
FF
FE
FF
03
FF
FE
02
FD
FF
FE
FD
FE
FC
FC
FF
02
02
00
FE
FC
03
02
FF
00
02
FC
FC
FD
01
FD
FF
FD
00
00
FF
01
FD
00
FE
02
FC
01
FD
01
01
00
02
04
00
FD
00
FE
FC
FE
01
02
FE
02
02
03
03
03
02
FF
FE
FF
00
02
FD
00
03
FE
FE
FC
FE
FD
FF
FE
FF
00
00
FD
FE
FF
03
FF
04
FD
FD
FF
FF
01
FE
FF
FE
04
FE
00
01
00
04
03
FD
FC
FE
00
02
03
01
FE
04
01
01
01
FE
FC
FE
00
02
02
00
FC
00
FD
02
03
FC
FE
FE
FE
FE
01
FF
FC
03
04
FF
02
01
02
01
03
FF
FC
FF
01
04
02
01
FA
01
FD
01
01
FE
05
02
01
FF
FE
FE
01
02
FF
02
FC
FF
03
01
02
FD
FD
00
01
00
FE
FE
01
01
01
04
FD
FF
FE
FF
03
FE
04
FE
02
03
06
03
05
FB
02
01
04
FF
FD
03
02
00
FD
FB
03
02
FF
FE
01
02
00
00
FF
00
01
00
02
02
FD
FE
02
FE
FF
00
02
FD
02
01
FF
04
FD
03
FD
01
02
02
03
02
02
03
FD
FF
FF
02
01
FC
02
FD
00
04
00
FE
FE
00
02
FD
01
01
FA
01
01
FC
02
04
FE
01
FC
03
FE
02
FF
03
03
02
FE
03
FF
FD
01
05
FE
03
03
FD
00
02
FB
FE
02
01
FC
FF
00
02
05
04
FC
01
02
FD
FE
02
00
FE
02
03
FE
00
00
03
FF
04
01
FD
02
05
01
FF
02
04
04
00
FE
FE
FD
00
04
FE
00
02
FB
02
FC
03
FF
02
05
03
FB
FE
03
04
02
FE
03
03
FB
00
FE
00
FD
04
03
04
03
03
FF
FC
02
03
01
00
FF
FE
FF
04
00
01
04
00
03
FF
FE
FF
00
03
FF
03
FE
01
FC
00
FC
03
03
03
FF
FE
FF
FF
01
FD
01
02
02
00
FC
FF
FE
04
04
07
00
02
02
00
FF
00
00
FD
01
FB
FD
01
FF
FE
FE
03
02
00
03
00
02
02
00
02
FB
FF
01
03
01
01
02
FD
05
02
00
FD
FD
FE
00
FD
00
FF
02
04
00
00
FE
FF
06
FE
FC
FF
02
02
01
FE
FB
FF
FE
00
01
02
FD
FE
03
03
FF
FF
01
00
02
FE
02
FE
02
00
06
01
FC
02
00
FF
FD
01
00
00
FB
FD
02
FD
03
01
04
00
FD
FC
00
FD
FE
03
02
00
FB
FE
00
00
02
01
05
00
F9
FE
04
03
01
00
FF
FE
00
00
FD
00
FC
FF
02
FD
00
FD
01
FF
FC
FF
00
FC
01
FF
00
FC
FC
FF
00
FE
00
FE
FD
FD
FC
FD
00
FE
FD
FE
00
00
FD
00
FE
FD
02
01
00
FD
FF
FE
02
FF
02
FD
00
00
00
FD
01
03
01
02
FF
FE
02
FF
00
FE
FD
03
FD
FD
FE
FD
FD
FD
FF
FD
FF
01
FF
FE
00
FE
01
03
FE
02
FC
FC
02
FF
FF
02
FF
FE
00
00
01
01
02
FE
FF
02
FC
FD
FC
FE
FC
00
FD
FE
01
FD
00
FF
FE
FF
01
00
01
00
01
FD
FC
00
02
02
FD
FD
FE
FF
00
FC
FE
FD
01
FE
00
01
FD
FE
02
FF
FC
FF
01
02
00
FD
FD
FF
01
03
02
00
FD
FC
00
FE
00
00
00
02
00
01
01
01
00
00
02
FD
FE
FD
FD
FD
FE
01
03
FE
01
FE
FF
FD
FD
FD
FD
FD
FE
FE
FE
FF
FC
02
FF
01
FF
FE
03
02
FE
FF
01
02
01
FD
FD
FE
FD
FF
FF
00
FF
03
03
02
FE
01
FE
FC
01
00
00
FF
FD
FD
00
FF
FF
00
FF
00
02
01
03
01
01
FD
02
FE
FD
00
FD
00
FF
FF
FE
00
03
03
FD
FD
01
FF
FD
FF
FD
03
03
FE
FD
00
00
FE
00
FF
FE
01
FE
FF
03
00
FE
00
FD
00
01
02
00
02
FD
02
FC
02
00
FD
01
FD
00
FE
00
FF
FD
FD
01
01
02
FE
FD
02
FE
FD
02
02
FD
FF
00
FE
03
FF
02
FE
00
01
FF
FF
01
01
FE
FE
02
03
FF
01
03
FD
01
FD
FF
FC
01
03
FE
FD
FD
00
FF
02
02
FF
FC
02
FF
00
FC
00
02
03
03
FF
01
03
03
FC
01
FF
03
FF
FD
FF
00
FC
FD
01
03
FE
FE
01
FF
00
02
02
03
02
01
FF
02
00
FF
01
FE
FF
FD
01
FF
FE
FE
01
FF
01
01
00
03
FD
02
FD
FE
00
01
FC
FC
02
00
FD
FF
FD
FC
02
FE
00
04
FD
01
FF
FD
FE
FF
FE
01
FF
FE
FB
FD
FD
01
01
FD
FD
FF
FF
FD
FF
FC
00
FE
FD
04
FE
FE
FD
FF
FC
FE
FC
01
00
01
02
FF
02
FC
04
FE
02
01
FE
01
00
01
01
FC
02
02
01
00
02
04
02
FD
FF
00
02
04
FD
FF
FE
01
06
04
02
FE
FF
FF
02
FE
FE
00
FD
FC
FD
FE
02
FF
FA
00
03
FF
FF
FF
01
02
FD
00
FF
02
FD
FE
FE
FE
00
00
00
FC
01
FC
00
01
01
FE
01
FF
FE
FE
00
00
FA
04
FE
05
02
FC
01
01
FE
FF
00
03
FD
04
FD
FE
01
03
00
00
FD
00
FE
04
04
05
00
04
FD
FD
FF
FF
04
FF
03
04
04
FE
FB
02
FF
00
03
02
FE
06
FD
01
FA
04
02
FF
03
FD
FC
03
FF
FE
02
FB
FD
03
FF
FD
FC
03
FE
01
02
FD
FE
02
00
FC
FB
01
FD
03
01
FB
FE
01
00
02
02
00
00
05
03
FC
FF
02
01
02
04
05
02
01
FF
00
FE
05
01
FF
04
01
FD
01
FE
00
FE
05
FD
FF
04
02
04
04
01
02
00
FE
04
02
FC
01
00
FF
F9
FC
05
00
04
FC
02
FB
FE
03
04
FF
03
03
00
FF
FE
01
FF
FF
01
FF
00
FC
01
00
01
04
00
00
02
01
01
FE
03
01
FB
02
01
01
00
00
02
00
FC
03
00
FE
02
02
FC
03
00
FE
04
FE
00
FC
FE
FC
FF
03
03
00
F9
00
FE
00
FA
02
04
FF
01
00
00
FE
FE
FF
02
04
FF
01
00
06
02
05
FF
02
01
04
02
FE
FD
00
05
00
02
00
FE
03
04
05
FE
FF
FD
FF
02
FD
FF
FC
01
05
FE
04
FD
FB
00
03
FD
00
FE
03
01
FE
FD
FD
01
FE
02
FF
FB
FE
FA
FB
01
01
FC
FB
FE
FF
FE
FB
01
FE
01
02
FA
FB
FD
FF
00
FF
06
FD
00
04
00
02
01
03
05
00
02
00
02
02
03
00
FF
05
04
FC
06
FD
02
04
06
FD
FE
FD
05
01
FF
00
02
02
04
01
01
00
FE
03
04
FC
FD
02
05
02
01
02
04
FC
01
02
FC
05
00
FE
FF
03
02
FE
FE
02
03
05
02
01
FD
03
02
05
02
03
FA
05
03
00
FB
FE
00
FE
00
FF
04
FC
07
FC
FF
01
FF
FE
FD
05
00
03
FD
01
03
02
04
00
00
01
FD
02
02
03
03
FE
04
01
01
01
00
00
01
01
FF
FE
00
FE
FF
FE
FF
02
FF
FF
FD
FE
FD
02
FE
04
00
01
02
FF
01
04
00
FF
00
00
01
FD
FE
02
03
01
00
02
00
03
00
09
FF
FD
FB
01
02
FC
00
FD
FE
FD
08
F8
01
00
05
FF
01
FB
FE
04
FE
00
00
05
02
FE
01
01
04
00
FF
00
FF
04
02
01
02
FD
FE
FD
FD
FE
FF
02
02
02
FE
03
02
02
03
05
01
02
00
FC
FF
FE
04
00
03
05
03
FD
00
00
00
01
FD
01
FD
02
04
01
03
FD
00
06
02
FE
FE
FD
02
04
02
00
FB
03
04
FE
05
FD
00
03
FE
05
FE
00
FD
03
FD
02
FD
04
FD
FC
01
FE
01
FF
03
03
FF
00
FE
FF
02
FF
00
03
01
FE
FE
01
FE
FD
04
FF
02
04
FC
04
FC
06
01
01
FE
FC
00
FC
02
05
05
00
04
02
00
01
01
05
00
00
04
FE
01
01
00
02
04
FB
00
01
FF
02
00
02
01
04
03
01
00
FF
FD
FE
02
00
FC
FE
03
FE
04
FD
04
00
FE
00
01
FC
00
04
01
02
FF
01
00
FC
03
FE
02
01
00
03
01
FE
FE
02
00
FB
FD
FD
FB
FD
01
01
01
FB
01
FE
FE
00
00
FE
00
FE
FE
04
FD
02
FE
FE
00
FD
00
FC
02
02
FF
FA
FD
01
01
FB
FB
FE
02
00
FD
01
FC
03
FE
FD
00
FB
F9
FE
FE
FD
FF
02
01
FD
03
00
02
FE
01
FE
FF
FF
FB
02
03
FD
FE
FD
FD
FE
02
02
FE
FD
FF
FF
00
FF
FF
FF
03
03
FC
01
FE
FE
01
05
FF
02
00
FF
FF
FD
FE
05
02
03
FE
02
FE
FE
00
04
01
00
02
FF
04
00
00
04
02
04
FF
FF
01
02
01
FD
FE
02
FC
FE
FF
FB
00
FF
FF
03
02
FE
03
00
02
00
FD
00
01
01
00
00
FC
FE
05
FF
FF
03
03
FB
02
02
FD
03
03
FE
FE
FF
FE
03
01
03
FF
FF
FD
FD
FD
FF
03
01
FE
02
FE
FE
00
02
FF
FC
FE
05
00
03
01
02
01
02
FF
FA
FD
00
03
FE
FF
FE
FF
FE
FE
03
FF
03
03
FE
00
FB
FC
01
02
FD
02
FF
00
01
04
FF
FE
01
04
FF
FE
FD
03
FF
03
FE
01
02
01
FF
FD
FD
00
02
03
02
01
02
FE
03
FD
FF
FF
00
04
FF
FD
FD
00
FF
03
00
00
FE
FE
01
02
FC
01
FD
03
03
00
04
00
00
FF
FB
03
FE
FC
FC
09
FA
FE
FF
02
FD
00
03
FE
FF
01
01
00
01
01
FE
02
FF
00
FF
FE
FF
02
00
01
01
01
FE
FE
00
04
00
01
FE
FE
03
00
FF
01
01
03
02
FD
FF
02
FF
01
FF
03
FD
01
00
01
FE
00
00
FF
01
00
01
05
FF
01
FD
03
01
00
FF
01
FB
FE
FF
02
00
FE
FC
00
00
FF
03
02
FE
01
05
02
02
03
02
FE
FE
FF
FF
FE
02
02
FE
02
01
01
00
03
02
FF
02
01
05
FF
01
02
04
FD
01
01
00
00
03
00
00
01
FE
00
07
03
01
02
FE
03
03
01
01
03
02
FF
FF
01
FD
00
00
FF
FE
03
01
FF
03
02
03
03
02
FB
01
FE
FF
02
02
03
03
00
01
03
01
FC
01
05
02
02
FE
03
FF
FF
00
02
04
01
FD
04
03
FD
FF
03
FD
03
01
00
01
00
FE
00
05
FC
00
01
01
FC
01
00
03
00
02
FD
00
03
FD
02
02
02
FE
01
00
00
00
FD
FE
01
FE
FF
02
FF
FE
02
FF
FF
FF
00
FF
03
FC
FD
FC
FF
FF
FE
00
FF
FA
FD
FF
FE
00
FD
FC
FE
FC
00
FC
00
01
FE
02
03
01
03
02
FC
04
03
FE
02
FE
FC
FD
01
02
04
FC
00
FD
02
02
01
00
FD
FF
00
FC
00
02
03
FF
00
05
02
FE
00
FF
03
02
03
FF
03
FE
FE
00
02
FF
01
FE
04
02
FF
01
03
FE
00
FE
FD
02
01
FE
01
FA
F9
02
01
FF
03
FE
FC
FD
FF
FE
FF
FC
FB
FC
00
FF
00
FC
FC
00
FB
FF
03
03
02
FA
05
FB
00
03
FE
FD
00
F9
FD
02
01
FD
03
FC
FE
01
FF
FE
02
00
FE
04
01
02
FE
04
03
03
FB
FB
00
02
FF
FE
FE
01
04
00
FE
FC
FE
FF
01
03
04
00
03
FE
FB
01
01
02
04
FE
FB
FB
FC
02
02
FD
01
FD
FD
F9
FE
00
03
FD
FE
02
FC
FF
02
03
02
00
05
01
FB
02
03
FF
02
FD
FF
05
02
FD
FD
04
FD
FE
04
FC
FE
04
FE
01
FF
FD
FF
02
FF
01
02
05
03
FC
FD
FC
01
01
01
FE
FE
FF
04
02
03
FE
03
02
04
06
02
03
FF
FC
FE
04
01
FF
03
FE
FC
FE
01
06
FF
FE
04
FC
FF
FF
F9
04
FD
FE
FF
02
FC
FF
FD
FE
03
01
00
04
FE
04
FD
03
06
FE
02
02
02
00
02
00
03
FA
00
FD
02
00
02
00
01
00
FE
FE
FE
06
01
03
01
00
03
FD
FC
04
00
03
FE
02
00
05
FE
03
FE
06
01
04
01
FF
00
05
00
FC
FD
04
03
FF
01
05
02
09
04
FD
02
01
00
01
07
F9
03
05
07
FF
FC
00
01
FE
FD
00
FC
02
FF
F8
FB
FC
FA
FC
FD
FE
FC
FE
FC
FF
FE
00
FF
00
FC
F9
FC
FA
FE
FC
FD
FF
03
07
FF
00
00
FC
FC
FE
FF
00
FC
01
01
00
04
FD
FE
04
00
01
00
01
02
00
03
FD
FC
01
01
04
00
FF
01
00
00
05
FF
01
02
FF
FD
02
04
00
00
00
FA
FE
FC
00
02
00
F9
03
01
01
FD
FC
F7
FB
FD
FC
02
FF
01
03
FD
00
FC
FF
00
FB
FF
01
FE
FE
01
FD
FF
FD
FC
00
02
00
04
00
01
FD
01
00
FE
03
FF
01
00
01
03
FE
01
00
04
05
03
03
FD
FF
01
01
01
02
03
05
01
04
FE
05
04
FE
FF
FC
FD
01
06
03
FB
FC
03
FF
01
FC
FF
FF
FD
FE
05
FC
FE
FD
FF
02
02
02
FF
01
02
00
FF
FD
05
00
03
FE
FD
02
FE
01
02
01
00
00
01
03
00
02
00
FF
05
03
FD
FE
01
FA
03
02
FF
FC
FE
00
FE
01
00
02
00
FF
00
FD
05
FD
FF
FD
04
FB
FD
04
01
FE
02
FE
03
00
FE
FB
09
FE
FF
FF
00
02
00
04
FD
02
02
FD
FC
FF
02
02
02
03
FE
FF
00
01
02
04
FF
02
FE
02
FF
01
02
00
FF
FD
01
00
01
FB
FE
FF
FF
02
02
04
05
01
FC
FD
FD
FC
00
FF
FD
FB
FE
00
05
FE
FF
03
00
04
FF
FE
FE
02
01
FD
FC
FE
FB
FB
FB
FE
02
00
FD
00
FB
FA
F9
FB
FE
FD
FC
01
00
02
00
FD
02
00
05
00
01
FB
02
FF
02
FE
01
FE
01
01
00
04
FD
FC
FF
FF
00
03
FF
FF
02
04
00
03
FF
04
04
01
00
02
04
05
04
01
FD
FE
00
03
05
03
FF
FD
04
04
00
02
FF
04
FE
FE
00
01
01
FC
FD
FE
FF
F9
00
00
00
03
03
00
FF
00
F7
00
FF
FE
FD
FF
FE
F9
02
01
01
01
01
FC
FF
FF
03
FE
FD
FF
FD
01
02
02
00
FE
01
FD
00
FB
01
01
03
FB
FE
FF
FD
02
03
01
01
FD
02
00
01
FC
04
02
FD
FC
FF
FE
00
FF
03
06
00
02
02
FF
00
05
FC
02
FE
FE
01
05
00
FF
FE
02
FF
FF
FD
FE
FE
06
04
01
FE
04
04
02
00
FF
01
02
FC
00
FC
03
03
FE
03
01
FE
01
FC
01
FB
02
FE
02
02
00
FF
01
FF
FD
FF
FC
FF
03
FC
01
FB
FC
03
FD
04
02
FF
FE
FE
02
03
FF
FC
FF
FE
FF
03
00
00
FC
00
FF
00
06
FD
02
FE
FD
FA
01
FE
FF
FE
01
00
F9
02
FF
01
02
03
FF
FF
01
FE
02
FF
FD
FC
02
02
FA
FD
FF
00
03
02
00
FE
01
01
03
03
FD
01
FF
00
FC
03
03
01
01
04
01
03
FF
FF
FB
00
FD
01
00
02
01
FF
FF
FC
FD
04
01
02
01
01
FB
FD
FB
00
03
00
FD
FE
04
02
FF
01
02
FE
01
04
FD
02
03
01
FD
03
02
FF
01
04
00
02
FF
FF
05
FD
00
04
FE
01
04
04
FD
05
00
FE
00
06
01
01
02
01
FE
05
FF
FF
FF
02
01
02
FF
FF
02
FF
FE
02
05
02
FF
00
FF
FF
01
FF
FF
00
01
02
FE
01
FF
FF
FF
06
FF
03
03
00
03
02
00
00
FF
00
FF
01
FE
FF
04
05
FF
00
04
FD
04
00
04
FE
00
FF
00
03
03
02
04
00
FE
03
01
FF
02
FE
01
02
04
05
02
06
FD
FF
02
01
04
FD
02
02
00
FD
02
FE
FF
00
FD
FF
FE
FE
FE
FF
01
02
02
FF
FD
00
FE
01
02
03
FE
FE
00
01
00
FF
03
FE
01
02
FC
00
FF
FE
02
01
FC
FD
00
00
FB
FE
03
02
FE
FE
00
FF
02
FF
FF
FF
01
FE
FE
01
FC
01
FE
01
01
FF
00
02
01
00
01
00
FE
FE
00
01
03
FF
00
02
FE
FC
FE
00
FE
02
FF
01
FF
FD
FE
00
02
06
05
02
FD
FD
01
00
FF
FD
01
00
FF
FE
FB
FF
04
03
03
02
03
02
FE
03
FE
01
01
01
00
FF
02
FE
01
03
03
01
03
FF
FF
FD
F8
03
03
00
FD
FF
FE
00
05
FC
FD
00
FF
F9
FC
00
FD
FD
FF
02
01
02
FF
FE
FE
FB
FC
01
FA
00
01
01
01
02
02
01
FF
FC
01
FD
FE
FE
01
FA
FC
FE
FE
03
00
02
02
FC
01
FE
FF
04
FE
03
03
01
00
FF
00
04
04
03
FD
FF
02
03
FF
FF
FC
FE
01
FE
01
FE
00
FE
01
02
FE
01
FE
03
FE
03
02
FD
FE
00
02
01
FA
02
FD
FD
FD
FD
FF
00
FE
FD
FE
FF
FA
FF
FD
FF
FE
FE
FC
FE
01
03
02
01
FF
00
FE
FC
FE
FB
FE
07
02
02
00
00
FF
01
FF
FE
FE
FD
01
01
FF
FD
01
03
02
00
01
01
FE
FE
FC
00
FE
02
FE
FF
FD
FF
FD
03
03
FE
02
03
00
FF
01
01
FE
01
FC
FD
03
03
02
02
01
FF
FF
FE
03
02
05
06
03
FE
00
FD
FA
03
01
FD
02
00
FE
02
FE
00
FD
04
FC
01
00
03
FE
FE
01
05
03
FF
00
FF
FE
FF
01
02
01
03
FE
02
FE
01
00
02
FA
FC
02
FD
01
FE
03
FF
FE
00
FB
02
FD
01
04
FE
01
03
FB
01
FC
02
FE
01
02
00
FE
FB
01
00
03
FF
FF
02
01
FE
02
00
02
06
04
FF
04
FF
02
01
FC
01
FF
FF
00
03
01
03
FD
01
01
03
00
FE
00
FF
FE
FF
02
03
FF
FE
01
02
FE
FD
06
FF
04
FD
01
00
FF
FF
00
03
FC
02
03
FE
FF
FF
03
FD
02
FF
00
04
00
FF
FF
FE
FD
FD
01
FC
03
02
FF
00
FE
FC
03
02
00
FF
FD
FF
FD
02
01
02
FC
FE
FD
FC
01
01
FF
01
FE
FB
FC
FB
01
FC
FC
FE
FC
FC
FD
FC
FF
03
FE
02
02
FE
01
FD
02
01
FE
FD
FF
FC
02
FC
FC
03
FE
01
01
00
FE
01
FF
FD
01
FE
FE
FC
FF
00
FE
00
FD
01
03
FE
02
00
03
FE
FE
02
02
00
FF
00
FE
FD
01
00
FC
00
00
FE
FE
01
FE
03
01
FF
02
FC
FF
FF
03
FE
00
FD
FD
00
FD
00
02
02
FE
FF
03
00
FF
FE
FC
FD
FF
00
FE
01
00
FE
00
FD
00
02
FD
02
FE
00
FE
FD
FF
01
FC
FD
01
00
FC
00
00
FF
01
00
02
FF
FF
FE
FD
FE
00
FC
FE
02
FB
FF
03
00
01
00
02
FF
00
FD
FD
FF
01
FE
FF
FE
02
FF
FC
FF
01
02
FF
FE
02
03
FE
01
01
00
03
FD
02
03
01
FE
00
FF
02
FF
01
00
02
02
00
FD
FD
03
FC
02
FD
02
FD
FE
03
FB
FE
FE
FD
01
01
FC
FE
FC
FF
FF
01
FC
FD
FF
FF
00
02
FF
FC
00
FC
02
FF
00
02
02
FF
01
03
FF
FC
01
FD
01
01
FF
FE
FD
02
FF
01
FF
FF
01
00
00
FC
FF
FF
FF
03
00
01
01
FF
01
02
FD
FD
01
FE
FF
02
FE
FF
01
FE
01
FC
02
FE
00
02
FE
01
FE
FD
FF
FF
01
00
02
FC
FF
03
02
FE
01
02
FE
01
FD
02
01
FF
00
FE
FE
01
01
02
FD
FD
FE
02
FC
00
FE
02
01
02
01
FE
00
FF
00
02
02
FF
01
FD
01
00
01
FE
FD
FC
FE
01
01
FE
01
FC
FE
FF
01
FF
00
FD
FD
FF
FC
FD
01
FD
FD
FD
02
FE
02
FE
02
03
01
FC
00
FC
FF
FE
FF
FE
FF
FE
02
04
02
00
01
02
02
FD
01
00
FD
FE
FF
FE
02
00
FE
02
04
FE
02
FE
00
FF
02
FF
FE
00
FC
FD
02
FF
00
02
00
FC
02
FD
00
02
00
00
FE
02
FE
00
01
00
FD
00
01
FC
FC
03
02
FF
FF
FE
FD
00
02
FC
FB
FF
02
FF
FD
03
FE
FE
FF
FF
00
00
01
FD
01
FE
FC
03
FC
01
FE
FE
FD
FF
FE
FF
FD
FE
FC
FE
02
FF
02
01
FE
00
02
FD
FC
02
FD
02
FD
00
FF
01
00
FD
FC
01
FD
01
FD
FC
FF
02
FF
00
01
01
FC
02
01
FC
01
FE
FD
FD
01
00
FD
00
02
02
FC
FE
01
FD
02
FE
FD
FF
FE
01
FF
FF
03
FE
01
02
FD
03
01
FF
00
FF
FF
FC
01
FE
FC
01
02
FD
00
FF
FD
02
02
FE
FE
FF
00
FD
02
01
FE
FE
02
03
02
FF
FC
02
00
FC
02
01
FE
FF
FE
FD
01
FD
02
03
02
02
00
00
FF
02
FD
FF
00
00
FD
FE
FD
01
02
01
00
FF
02
FF
FD
FF
01
FF
02
FE
02
FE
02
FE
01
FF
02
02
FF
FE
FE
FF
00
03
00
02
FC
01
FE
02
FE
FE
FE
FE
FE
FF
FC
00
FF
FE
02
01
FD
00
FF
01
00
FE
02
FF
FD
FF
FE
FD
01
FD
FE
FE
FD
00
00
00
FE
FE
FD
FF
FE
FE
FE
FE
FC
FE
02
03
FD
FC
FE
02
FD
FF
FF
FD
FF
01
FC
00
FD
FE
FD
03
FE
FD
FC
02
00
FE
01
FE
00
FE
FD
03
FD
00
FF
01
FE
FE
FF
FE
FC
FC
FD
FC
03
FE
FE
FC
FC
FC
FC
00
03
00
01
FF
00
02
FD
FF
FE
FE
00
03
00
FC
00
FF
02
01
FC
02
01
02
FF
00
FD
FC
FE
01
01
01
01
FD
FC
01
00
FF
FD
FF
FC
FC
02
FE
01
FB
03
00
FC
01
00
00
FF
FF
00
00
01
01
FD
FF
FE
01
FF
FC
FD
00
FE
00
FD
00
FC
FC
01
02
01
FF
FE
02
FD
FD
FC
01
FE
FE
FF
FE
02
01
FF
FF
01
02
FE
FC
FD
02
FC
FF
00
00
01
02
FE
FD
FE
FF
FC
02
FE
01
FF
FE
01
FE
FE
FD
03
02
01
FF
01
00
00
00
01
FC
FF
FD
02
FF
FC
01
03
02
FE
01
01
01
FF
02
02
FC
03
05
01
00
00
FC
01
FD
04
00
FD
02
01
04
FF
01
02
00
04
04
01
01
FD
01
01
03
04
02
04
01
FF
FC
03
FE
00
01
01
01
FF
05
01
FE
FD
04
01
01
FD
FE
FB
FF
FE
03
01
FF
00
FF
FD
FD
FC
00
00
01
FE
FE
00
FE
FE
FF
FF
FC
FE
FE
00
FE
FD
FE
04
05
FC
FC
00
01
04
FE
02
03
02
FB
01
FF
01
03
05
FF
02
00
FC
FF
02
00
00
00
04
01
FF
03
05
04
05
FE
00
03
FF
FB
FE
02
05
FE
03
02
02
03
02
00
00
05
01
FE
FB
FE
FC
FF
04
FF
FE
FC
02
FD
01
FF
03
00
01
FD
FE
FF
03
00
03
00
03
01
00
FF
FD
00
02
FE
03
FB
01
00
02
FC
01
FD
02
03
02
02
FF
00
FD
FE
FE
FC
00
00
00
01
03
01
03
05
01
02
00
00
02
FF
03
01
02
FA
FF
00
08
FE
FF
FE
03
FF
FE
03
FE
01
02
03
FD
F7
03
FF
FF
02
FE
FE
FF
FE
00
04
00
FF
04
FE
00
00
FD
01
00
01
FF
FD
FE
04
00
FF
FF
00
FD
01
FB
FF
01
02
FD
02
00
FB
FE
03
04
FE
FC
02
FC
02
00
01
FC
00
FB
FF
03
00
FE
FF
FF
FE
FF
03
FE
FF
FD
01
FE
FE
FC
FD
00
FF
04
FF
00
01
FE
FD
03
04
05
FE
FD
03
FF
02
00
01
FF
01
00
FF
03
FB
03
02
01
02
FE
00
02
05
01
00
FE
FF
02
FE
FE
FF
04
02
01
FE
04
FF
FE
03
FD
FD
FB
04
00
FF
00
FC
FF
FF
01
04
01
FD
F9
FF
FF
00
FD
FD
FD
FF
FB
00
01
FF
01
03
FD
FC
FC
FD
01
03
FD
00
02
FE
FD
FD
FE
FE
00
00
FD
03
FE
00
01
FF
FE
02
FD
01
01
02
00
FF
FD
FD
03
FD
FC
02
FD
FC
03
01
FD
01
02
FD
FC
FF
FF
FF
FF
FC
FF
FF
FF
FD
00
FD
FD
FD
FE
FD
FF
FF
00
FC
01
FF
FE
FF
FF
00
FC
FC
FE
FE
02
02
FE
FD
00
00
FE
FD
02
01
02
02
FD
FD
FD
01
FD
FE
01
01
01
FE
FD
03
02
03
FF
00
FD
01
FF
FC
FF
FE
FF
FE
01
FF
FD
FE
FF
02
FC
00
01
FD
FD
FE
02
FE
FD
FE
00
00
FE
FE
FF
00
01
01
FD
00
00
FD
FD
FC
00
02
04
FF
00
00
FF
FD
FE
02
FE
01
FF
01
02
FC
00
FE
01
FF
01
FD
FC
02
02
FE
03
01
02
FC
FF
01
FD
03
01
FF
01
FE
FD
01
FF
03
01
FE
FD
00
02
01
01
FF
03
FF
01
01
01
01
01
FC
01
00
03
FF
01
FC
FC
01
FF
02
01
FC
FE
FF
FC
FE
00
FE
02
02
FF
FC
FE
04
FD
FE
00
FD
00
03
FD
FD
02
04
FC
01
FE
FF
01
FF
FE
03
01
01
FD
FB
02
00
01
02
FB
FB
00
02
01
FF
01
FB
00
01
01
01
FF
02
03
FE
FE
FD
FB
01
FD
FD
02
03
FC
FE
02
FD
01
FD
FE
FC
00
FD
02
03
02
02
FD
03
FF
FD
03
02
00
FC
FE
03
FF
00
FD
FF
00
FD
FF
02
03
FE
FD
FE
00
FE
00
FD
FE
00
FF
00
FE
FD
03
FD
FF
FD
FF
FC
FF
FD
FD
FD
FC
FE
FF
FE
02
FF
FC
FF
FE
02
FD
FC
FF
02
FF
FD
FF
00
FD
FD
FE
FF
FD
02
02
FE
FC
00
FE
FF
02
01
FC
FE
03
03
00
02
03
FE
02
00
01
02
00
01
FE
FF
FF
00
FC
FE
FD
FE
01
FD
02
FF
02
02
FD
03
FD
FD
00
FF
FC
00
FE
03
01
FD
00
00
01
00
00
00
04
01
02
FF
FF
01
00
FE
04
02
01
FE
00
01
FE
FE
00
04
FE
01
01
03
FD
01
01
01
00
02
FF
02
00
01
FD
00
FE
01
00
FE
01
FD
FF
03
FF
00
01
03
02
FF
01
00
01
01
01
FF
04
FF
FF
03
02
02
FD
03
00
FF
FE
02
FF
00
00
FF
FE
06
01
05
FE
00
FC
03
00
00
FF
01
00
01
02
02
00
FE
02
00
03
01
01
FF
00
01
00
FE
01
03
FD
01
00
01
FE
FF
03
FD
00
03
01
03
02
00
03
FE
00
FF
FD
00
FE
02
00
00
04
FF
01
01
03
FC
FF
00
FD
02
FF
03
04
03
03
FD
FD
00
00
05
FD
03
FE
FC
00
FF
02
01
06
05
02
00
FE
00
00
FF
02
00
FC
02
05
01
03
FD
02
FD
FF
04
FF
04
01
FE
04
02
02
FD
00
FF
04
FF
02
FE
FE
FE
05
02
01
01
00
03
03
01
02
01
FF
00
01
FE
FD
00
04
01
04
02
FF
FD
04
FE
01
FF
02
FF
00
02
FE
FE
FF
04
01
02
03
03
FE
FF
01
FC
03
02
07
FD
01
01
03
FE
01
01
FC
02
FB
FE
08
01
FE
02
02
02
FC
FE
FF
FF
00
01
FE
FD
01
00
05
FD
00
FE
01
FF
01
04
01
02
FE
02
FF
01
FF
FE
01
FC
00
02
00
FE
03
FF
00
FE
03
FF
01
FE
FF
FE
00
00
00
02
01
FB
FF
FE
FD
FD
00
FF
FF
03
03
01
04
02
FD
03
FC
FF
02
03
FF
FF
02
01
FE
03
FE
04
FF
FA
00
FC
FE
04
FE
FD
01
FE
01
06
FE
FF
00
FF
00
FD
03
01
FF
FE
02
FE
03
FD
FE
04
FE
00
01
02
FF
05
FE
01
FC
FE
01
03
02
FD
00
FD
03
00
FF
01
03
01
FD
01
FC
01
03
03
FB
FD
FD
00
01
FD
01
01
02
04
FC
FA
FC
01
01
03
FA
00
FE
FC
01
01
03
FF
04
05
01
00
FF
02
03
FE
04
FF
04
FE
04
FF
FC
01
05
00
FE
FE
FF
FC
01
FD
FF
FE
01
00
00
FF
FF
FE
04
01
FD
FF
02
01
FE
FF
06
01
01
04
04
01
00
00
02
03
03
03
00
FE
00
01
04
FC
FE
02
03
FF
02
00
FF
04
FF
FF
FE
04
01
04
02
04
01
FD
FF
04
00
00
05
FC
FE
03
04
FF
04
01
FE
00
FD
04
00
03
04
02
FE
FD
00
FF
04
04
01
FF
FF
FE
FD
00
FD
FF
01
03
00
FC
02
FE
01
FD
FD
01
02
FE
02
FD
FD
FE
03
FF
04
FC
FE
FE
01
FC
02
FE
FF
FD
04
02
FE
05
FF
02
00
01
FF
FF
FE
00
FD
04
02
05
02
02
FC
03
00
00
FE
FF
FD
00
01
06
02
00
02
00
01
00
FF
FE
FF
FE
FE
FF
00
FF
01
01
03
00
FF
FD
FD
03
FE
03
FE
01
FF
04
FE
00
00
02
FF
FE
FD
00
FE
FB
FD
02
01
04
01
FF
FF
FF
03
00
01
01
FE
01
00
04
02
03
02
02
FF
FF
00
FF
02
04
02
01
01
FF
03
FF
00
FF
05
02
00
02
02
01
FD
00
FE
00
03
02
03
FD
FE
03
03
00
FD
01
FF
02
FD
04
00
FE
03
01
01
03
03
FF
01
03
00
FF
01
FE
02
03
05
FE
FD
01
02
01
FE
00
01
FE
FF
02
00
05
FF
FD
04
FE
02
02
FE
07
FF
04
04
02
FE
FD
02
02
08
FE
00
FF
01
FF
04
00
03
03
00
00
FD
FF
01
01
00
FF
FF
00
02
FD
00
FB
04
FF
01
00
FF
FF
03
FE
00
03
03
01
02
04
04
FF
00
01
FD
01
FD
FF
02
04
03
01
03
02
00
01
00
01
FF
FD
FE
FB
FF
FC
02
02
06
01
02
00
00
02
FE
00
FE
01
FD
FC
03
FE
04
FF
06
FC
01
FC
FD
00
01
FE
06
FD
FE
02
04
FF
FF
FE
FE
FC
00
00
03
FD
FF
FC
01
04
04
02
04
FE
FF
FF
01
FD
FE
03
06
05
02
00
03
00
06
FE
FD
03
FB
FF
FD
FE
02
01
01
FF
FD
FE
FF
FC
00
01
00
00
FE
FE
FE
02
03
FE
FB
02
FF
02
FF
03
01
01
FE
FE
02
02
00
01
FD
00
FC
FE
01
FE
01
FF
00
00
08
FE
FE
FF
01
FD
03
02
FE
FF
01
03
01
06
FF
FE
03
FF
01
FE
FE
FE
00
03
03
01
FF
03
01
01
01
03
02
FC
00
01
02
FF
FF
00
04
FC
03
FC
FD
01
04
FF
FC
01
03
02
01
04
00
FA
FD
02
FD
04
FD
00
00
00
00
02
01
05
08
00
FF
FC
00
02
FF
FC
04
01
FD
FC
02
FC
FD
00
00
00
FE
03
02
04
03
00
03
05
00
FD
00
00
03
01
02
01
03
03
05
FD
00
FD
01
FF
04
01
04
00
FE
FF
FE
FE
03
FF
06
04
FE
05
01
01
04
00
01
01
00
01
02
00
01
02
00
04
FE
00
FE
00
FD
FF
01
01
02
00
05
FB
02
FB
02
04
FF
FF
FC
FF
FD
01
06
FF
00
01
02
03
00
FC
FD
04
01
00
FD
04
FD
00
FE
02
FF
01
03
FF
03
03
FF
FF
FE
FF
FF
FE
FF
00
FE
01
02
FD
01
FF
02
00
03
FE
FF
00
02
02
04
04
00
FF
00
01
04
FD
05
05
02
FF
FD
01
FD
02
FE
FC
03
FE
FE
02
03
FC
05
02
01
03
FE
FE
01
00
FF
00
FD
01
01
00
FF
04
01
FE
01
FF
02
02
FE
02
03
01
01
01
FD
05
03
01
FF
02
00
00
03
FF
01
03
FD
04
FE
04
00
03
FC
FF
FE
FE
00
03
02
FD
FF
FE
04
00
FE
00
03
01
FD
01
01
03
FF
01
FE
01
FE
FC
FD
FF
03
03
FF
FF
FE
FE
FF
00
FE
FE
FC
01
FA
FE
FD
04
FC
FD
01
FC
FF
02
01
FF
FF
00
00
FF
00
FE
FD
02
01
FF
FF
FF
FD
02
03
FD
03
FB
FE
FF
FE
00
FF
FE
03
00
FB
FD
F5
04
FE
FF
03
FF
00
FF
03
04
03
FE
FF
FE
FF
FE
FB
05
02
FF
FF
01
03
08
FF
00
03
FF
FE
FD
FE
02
FE
05
02
00
01
FC
00
00
FF
04
FC
04
03
FF
FC
FD
01
02
FE
FF
02
FC
02
02
00
02
01
00
01
04
03
FE
02
FE
FF
04
04
02
04
F8
FF
02
03
FF
00
00
01
FF
FA
FA
FF
02
00
FC
01
FB
01
01
02
02
FE
00
FD
FC
FC
FC
00
03
01
FE
04
02
FD
00
03
03
FE
00
FE
FE
02
02
00
FE
01
05
03
04
FF
03
01
00
05
FA
FE
00
00
FF
FF
02
02
02
01
05
01
05
01
00
03
00
00
00
04
FC
01
00
03
FF
04
01
03
04
05
FE
03
01
02
06
02
00
02
03
FF
FD
FD
FE
FF
FF
02
FC
02
FE
FD
01
FD
FC
01
FE
04
00
FF
02
FD
FE
00
00
FE
00
FE
FE
04
FD
FE
FC
FD
06
03
01
02
FE
FF
01
01
FF
04
03
01
04
FE
FE
FF
04
01
05
03
01
FB
01
02
02
01
00
FF
02
03
00
FE
03
FD
02
FD
FF
FE
01
00
01
02
02
FF
02
01
FE
00
02
02
00
00
02
00
00
04
03
04
02
00
03
02
02
02
FF
FE
00
FF
FE
00
FF
03
FE
02
01
04
01
FD
FE
04
02
02
00
FD
FF
02
FF
00
FF
04
03
00
FD
FE
02
00
02
02
00
FF
FE
02
01
02
FF
01
05
00
FE
01
00
00
FD
03
FF
FF
04
01
06
FE
FD
FD
FF
FE
00
03
03
03
04
FF
00
03
FF
05
04
FE
01
FE
00
FF
04
03
04
FF
02
00
FF
02
00
03
FE
FE
00
01
03
FE
01
04
04
03
00
01
FC
03
FE
04
01
07
FF
04
01
01
FF
FF
05
FE
04
01
00
01
00
02
FE
03
00
01
01
06
FE
FE
03
FD
01
03
03
01
03
03
02
00
01
02
FF
01
FD
FD
02
00
00
FF
08
03
FF
03
02
01
05
02
00
FB
03
03
04
04
02
03
FC
03
00
FD
FE
01
00
00
02
01
FF
02
00
01
04
FE
01
FF
FE
01
FD
03
01
00
02
FF
FF
FF
00
FE
02
FE
01
01
01
03
FF
FE
01
FF
FF
00
03
FE
FF
FE
FE
01
06
01
FF
FE
04
01
00
FE
FD
FE
01
FD
03
FE
FF
03
FD
03
FF
FC
06
01
02
00
02
00
01
03
FE
01
FF
02
FB
02
FD
02
04
03
01
FF
00
FA
FE
04
01
02
01
FD
FE
FC
FB
FE
FB
02
03
FD
FF
FC
02
FC
FA
00
01
00
FD
02
FB
FF
03
FD
01
FD
FF
FB
FE
01
01
FD
00
FF
FF
02
FF
FC
FF
00
FC
FD
FC
FE
04
01
FD
01
FE
FF
02
03
FF
FF
04
FE
FE
02
00
FE
FE
02
01
FF
FE
FD
00
00
04
03
00
02
02
02
03
01
03
FE
00
06
00
FE
01
FE
02
FE
FF
01
00
FF
00
02
FA
02
04
01
02
03
FF
FD
05
02
FF
00
FD
FE
FE
00
FC
01
00
00
00
01
FE
FE
02
02
02
FE
01
00
02
00
00
00
00
05
05
FE
02
00
01
01
03
02
02
FF
03
03
02
02
02
00
FF
FF
01
00
01
01
01
00
03
FD
01
FE
FD
FE
FE
FC
FF
FF
01
FD
FD
01
01
01
01
FD
00
FF
03
FF
01
01
00
FD
02
03
01
01
00
02
FE
FF
01
05
00
FE
04
FC
FD
01
03
02
02
03
00
03
02
FF
FC
FF
03
02
03
04
03
01
FD
02
03
00
02
00
FD
04
00
FE
FF
FD
FE
FD
02
03
04
04
FB
FE
FD
FD
01
FD
02
FC
02
FE
FE
FC
FE
01
02
00
00
FC
00
03
FF
02
01
01
FE
FE
00
FE
FF
FF
FF
FE
FF
02
FF
FE
02
FF
00
FD
FE
FF
01
03
01
FD
03
FF
FD
00
FC
00
01
00
01
03
FE
FF
00
FD
02
FF
02
01
02
FD
00
02
01
FD
FC
FF
02
FE
FF
02
02
FE
FE
FF
03
FD
FF
FF
02
FF
02
FE
01
FE
00
FD
FE
01
FD
00
01
01
01
03
01
03
00
02
FE
00
FD
FC
FF
FE
03
FD
FD
01
01
02
FF
FD
FD
FF
03
FF
02
00
01
FE
01
01
01
00
03
FF
00
00
FE
00
FD
FF
FD
01
FF
FC
02
FD
FE
00
03
FF
00
00
00
02
FD
FC
FF
FE
FF
FF
FE
00
00
FD
FD
FF
FE
FE
FF
FD
02
FF
FD
02
02
FF
03
FE
00
FE
FE
FF
03
01
FF
02
FF
02
FE
02
FE
FE
FE
FF
FD
02
01
FE
FC
02
FC
03
00
00
00
FD
FD
02
FD
FD
01
01
FE
FE
FF
00
FF
FC
01
03
02
02
02
FD
FE
00
FD
FE
00
FD
FF
FF
FF
FD
FD
FF
03
FD
02
FE
00
FD
00
02
FF
FE
FF
01
02
FE
FF
FC
FF
03
FF
02
02
FD
FE
FC
00
FD
00
FC
03
FF
01
01
FC
FF
02
FF
02
00
03
FF
02
02
FF
01
00
00
FC
01
03
FE
FE
00
FF
FF
00
FE
01
00
02
01
FD
FD
00
FE
01
FC
02
01
FE
00
01
FF
01
FC
FF
FF
FC
02
FE
FF
00
FF
FC
FC
01
02
FE
03
FE
FD
FD
00
00
FE
FD
02
FE
FF
FF
FF
FE
FD
FF
FF
FD
FD
FF
00
FF
FF
FE
03
02
03
02
03
00
01
FF
02
FF
FF
01
01
00
01
03
02
FF
00
01
00
01
03
00
FF
01
FD
01
FE
FD
03
02
FE
03
FE
02
FD
FE
FD
03
FD
02
01
00
02
01
03
FD
FC
FD
FE
03
FC
03
01
FE
02
00
FD
FE
FF
FF
FE
FD
FF
00
FD
01
FF
06
00
02
FD
FD
FD
01
FF
01
FB
FE
FD
05
02
FE
FF
03
01
00
05
01
02
04
03
02
FF
FF
FD
01
03
01
FE
02
01
01
01
FF
01
04
FF
00
F8
02
FE
00
02
FC
03
FF
00
FB
FD
FF
FC
06
02
FC
F7
05
01
FF
FB
02
00
FF
FF
FD
00
FE
FE
01
01
02
06
01
FD
FB
F6
FC
02
FE
04
FE
FF
01
FF
04
FF
FF
00
01
FC
00
03
01
FF
01
FF
FD
00
04
03
00
FD
00
FB
FB
00
FE
FC
FE
00
FF
02
FB
FE
01
01
01
FE
FF
03
00
01
FD
FD
FC
02
FB
FD
FD
01
04
FD
FD
FD
FE
02
04
FD
FF
FC
00
FC
01
FD
04
FF
03
02
FD
FE
03
08
06
FC
FE
FC
02
02
FE
00
01
00
00
FC
FE
FF
FB
01
FB
FD
FF
00
FF
FE
02
01
02
05
00
01
02
FE
FE
FE
00
01
FF
00
02
03
00
01
FB
04
04
FD
FC
00
03
FD
00
01
FE
00
FF
00
01
01
03
01
02
00
FD
03
01
00
01
01
01
FF
05
01
01
00
06
FC
FB
FF
FE
03
01
04
FC
01
01
00
02
FD
FF
02
FE
FC
00
FB
FF
FD
01
03
00
00
02
00
FD
00
FE
02
03
04
01
00
FE
00
04
01
04
FD
01
03
03
02
FB
00
02
03
02
01
FE
02
FC
FC
FE
FF
FF
00
01
FF
01
00
01
02
00
04
FF
03
FE
01
FE
05
00
01
01
03
FE
01
01
FC
FE
03
FD
04
05
FE
00
04
04
00
FD
03
FE
01
01
FD
03
01
00
FF
03
02
FF
FE
00
FE
04
02
FF
FE
04
FF
01
00
FB
03
02
03
FE
02
FE
04
03
02
00
03
00
02
FE
01
02
FF
01
01
01
00
FF
03
04
04
03
03
01
FE
FE
FE
FB
03
05
01
FD
00
FE
FC
01
FE
FF
04
F7
FD
FD
FC
01
04
01
FC
01
03
00
FA
04
FF
07
02
00
01
FE
FF
FE
01
06
00
FF
02
06
02
FD
04
01
FF
FF
04
FF
05
02
03
FE
FD
FD
01
02
03
FE
00
FF
04
04
03
01
04
02
01
02
01
FF
02
01
FF
01
01
00
00
00
02
03
03
FF
FE
FE
01
FD
03
01
03
02
00
FB
02
FD
FF
04
FF
00
01
01
FF
FF
01
FC
FB
02
00
04
00
02
02
FB
00
FE
01
04
FE
02
02
01
FF
FD
03
00
FF
01
02
FF
00
FE
01
FF
04
02
04
01
FD
05
02
05
00
03
00
02
FF
02
FE
FE
02
03
00
02
FF
03
04
02
00
02
00
02
00
01
FE
03
00
02
02
FD
01
04
01
01
FF
FD
FF
03
FE
FE
02
FE
01
02
FF
00
FF
FE
FC
FF
02
FC
FF
FF
01
FC
02
FB
FF
00
FE
02
FD
FF
01
FD
FC
00
FF
04
01
FD
03
FD
FE
FD
FE
00
00
FC
01
01
03
FF
02
00
FD
FE
FE
FE
FF
02
01
FE
FE
FC
FC
01
01
FF
04
05
04
04
FE
FB
FF
04
01
03
00
FE
FD
03
FE
05
FE
00
FD
01
00
FC
FF
01
03
01
04
FD
01
00
00
03
04
FC
00
FD
FC
FF
FC
02
FC
FC
FA
FB
FD
FF
FE
05
01
01
FD
FF
FE
FF
01
03
00
FD
FD
FC
03
FD
01
03
FC
04
02
FF
FC
00
FE
03
04
03
FF
FE
FF
FF
01
04
00
04
03
04
FD
03
F9
02
03
00
FF
FD
FE
01
FE
02
02
01
00
02
01
00
01
FC
FC
FC
02
01
00
FF
FF
FD
FD
01
FC
04
FC
FE
FD
01
03
00
01
02
FE
02
FF
04
FF
00
FB
03
FC
FD
FE
FE
FC
03
02
FE
02
01
01
00
01
02
FE
FF
FC
FF
01
03
03
FD
05
01
FF
06
02
FB
01
FD
FE
FE
03
00
05
00
FE
FF
04
04
01
03
02
FD
03
FE
02
FB
00
05
06
FD
FF
FC
01
FE
04
FF
01
00
FF
04
FF
FF
01
00
FD
FD
01
03
05
FE
02
02
00
00
FD
02
01
02
03
FF
FA
FD
00
03
00
FD
03
01
FC
00
FC
01
04
03
FD
FF
FA
FF
03
02
04
00
02
02
FD
FC
FE
FD
01
02
FF
FE
FF
FF
00
FD
02
FF
FF
00
00
FB
FF
FE
FF
04
FF
FF
FB
05
00
03
07
01
FF
00
04
FF
00
01
03
03
05
FE
00
00
FE
06
00
FD
01
04
FE
01
FF
02
FE
03
02
FE
01
02
03
04
FD
FC
03
01
FE
00
00
01
FD
01
FE
FF
FC
FF
03
00
01
03
FE
03
00
01
01
03
02
01
00
FE
00
01
FF
04
FD
02
03
01
FF
FA
FF
03
01
01
02
FC
FC
02
03
00
02
FF
04
03
03
00
02
FE
FF
04
03
FE
FE
04
01
FE
FE
01
FF
02
01
00
01
00
02
04
04
FF
01
02
00
04
FF
03
01
00
03
01
03
03
02
05
00
01
FE
02
01
00
01
00
01
FB
FD
FF
04
02
01
04
02
FE
FE
FF
00
01
00
FF
01
FC
04
FE
FF
04
00
FE
00
04
FD
01
FD
FF
00
FD
FE
02
FF
FD
FE
00
FB
04
FF
FF
FE
FF
FD
FF
FF
FE
04
04
03
00
00
04
02
03
FF
FE
02
04
FC
04
FE
FE
03
FD
FE
03
03
01
00
06
FF
FE
FF
03
FE
FE
04
04
FF
01
01
FD
01
01
01
00
01
FE
FF
00
00
01
FD
04
02
00
FE
FE
00
00
FD
FE
02
01
04
03
FF
03
01
FE
FE
FE
FD
01
FE
FE
FA
00
04
FF
FF
F9
FE
03
03
FC
01
FF
03
01
03
03
FD
00
03
00
FF
FA
FD
FF
FE
FD
03
01
00
FE
04
FF
05
FD
00
02
FF
01
FD
FD
05
01
02
01
00
01
01
00
00
FD
03
02
05
00
00
FF
01
00
01
03
00
FB
01
FD
00
FD
03
01
04
FD
FF
01
FF
FD
01
05
01
FE
FA
FF
FB
00
FF
00
00
FD
FE
01
04
01
00
05
02
02
FC
FE
01
04
02
FB
FE
00
FE
FF
01
FE
FD
03
FF
01
04
00
FE
04
FF
FE
F8
FE
00
FD
01
FE
03
FC
00
FF
02
02
FD
FE
00
FD
FE
04
01
FE
FF
03
01
FF
01
00
FF
04
FE
01
FF
FF
02
05
FE
FE
FC
FB
01
04
FC
00
FE
01
FE
FF
01
FD
FC
01
FD
03
02
FF
04
FF
02
FE
FF
05
01
00
FD
03
FC
00
01
FF
02
FE
FE
FC
FF
FC
04
04
05
FF
FD
FD
00
01
03
00
FF
02
FF
FA
01
02
00
FF
01
00
FC
02
FF
04
FF
FB
FC
04
FF
06
FE
01
FF
03
FF
02
FD
01
06
00
FF
01
00
FC
FE
02
03
02
FE
FF
FE
02
01
FC
FF
00
FC
03
03
FF
02
01
03
01
FE
02
04
01
04
FF
FC
00
04
03
02
FF
03
00
03
01
03
01
01
02
00
FE
FD
04
04
FC
FD
FF
00
FE
03
00
03
01
03
00
FF
FE
05
02
00
02
03
FF
FF
FF
04
FF
FE
FC
00
FE
00
01
08
FC
05
FF
04
03
03
02
FE
00
FE
FF
01
03
02
00
FE
00
02
FE
FD
01
00
FF
FF
02
02
01
02
00
FF
04
01
FF
00
04
01
01
FF
01
FF
FF
02
06
03
01
FF
03
01
01
05
FF
FB
FF
FE
00
03
04
03
FE
03
00
00
02
FF
00
02
02
FC
02
00
01
00
01
03
00
03
00
04
FE
02
FF
FF
02
FF
01
00
05
FE
02
00
FE
00
00
03
00
03
FE
04
03
02
00
00
FE
02
03
FE
02
01
02
00
00
01
00
FE
04
02
FF
05
02
00
FE
02
FF
01
04
03
01
00
01
00
04
03
03
FF
FF
FE
00
FD
FB
FF
FE
02
00
03
01
FD
FE
FD
01
00
FF
00
00
FE
FE
FD
FD
FF
00
FD
05
FC
FF
FF
FD
03
03
04
02
02
FF
00
FD
00
01
FF
00
04
00
04
02
01
FE
01
03
00
01
00
00
FE
01
FF
00
00
05
FE
02
FD
FD
00
FE
02
FD
03
FF
FF
FF
02
02
FE
02
00
FD
01
FF
FD
00
FD
00
02
FC
FF
02
03
00
FD
01
01
01
02
04
FC
FD
02
02
00
00
01
03
00
03
FF
FE
FF
01
01
02
01
FF
FE
FE
02
00
FD
FC
03
FF
FD
FF
03
03
FF
00
FC
FB
FC
FB
01
03
FD
FE
00
FD
FD
00
00
01
02
FD
01
00
00
02
FE
00
00
FC
01
02
FE
FC
FE
02
FF
00
01
02
FD
FD
01
FD
01
03
04
03
00
00
00
FE
FC
FE
FF
FF
FB
01
FF
FE
00
FD
02
01
FD
02
02
01
FE
FE
FD
02
FC
FE
01
FF
FD
FE
FD
FB
FB
FD
FD
01
00
00
FE
01
03
00
FD
02
FD
FE
02
FD
01
01
FB
02
02
FD
FB
FD
03
04
FC
FC
FD
FD
FD
FF
01
00
02
02
01
FF
02
03
FF
FD
FD
FD
02
02
00
03
FD
FD
FF
01
FF
FB
FF
02
FE
01
00
02
FE
FF
00
FD
FC
FC
01
FC
02
FF
01
FF
FE
03
01
01
FF
FF
01
FD
00
00
FC
00
FD
FD
FD
00
FD
FF
00
FC
FE
FE
01
FD
01
FF
FE
FF
FF
02
00
01
00
FE
FE
FD
FF
FE
01
FA
02
FD
01
FF
00
FF
FE
00
02
FF
FF
FF
01
FC
FE
01
00
FC
01
00
01
00
FD
02
FB
FF
02
02
01
FC
01
03
01
04
03
FF
FC
00
00
FC
FD
02
FF
00
00
FF
FD
00
FF
FD
FD
FF
FE
FB
FF
00
02
FF
03
FC
FF
01
FE
02
FC
00
02
00
FD
FF
FE
00
01
FD
04
01
02
FD
00
02
02
00
FF
FE
FE
FB
04
FF
FF
FD
01
01
00
04
03
03
04
03
FF
FD
FD
00
FC
02
FE
00
02
04
FF
04
FE
FC
02
00
FC
FC
FD
FF
01
FD
FD
FF
FE
FE
01
01
03
00
01
FF
FD
00
03
FE
FC
FF
FF
FF
03
FF
00
00
FF
02
01
02
FF
01
00
00
FD
03
02
00
FE
FD
03
00
FE
FE
00
FF
FE
FD
FF
01
FE
FE
02
FE
00
00
FF
FE
01
01
00
FD
FC
02
FD
01
02
FC
FE
FF
01
FF
03
FD
FE
FE
02
03
02
03
02
FC
FF
00
FF
FF
00
FC
02
FD
03
01
FF
03
00
FC
01
FC
03
02
FE
FF
FF
01
FE
FF
01
02
01
01
01
FF
01
02
00
00
00
02
FC
FF
02
FE
00
FD
02
FF
02
FE
03
FE
FD
02
FE
FD
FF
01
FF
FF
02
03
03
03
00
FD
00
FF
00
FE
FD
FF
03
00
02
FD
FD
00
03
FD
02
00
03
02
FE
00
01
02
00
01
00
01
03
03
FF
FE
FF
00
FE
03
FE
FD
01
02
FE
FD
FD
00
00
FD
FE
FD
FE
01
01
FE
00
FD
FE
00
03
02
FD
02
FF
FC
FF
01
FF
FD
FE
FD
01
02
FF
02
FD
00
FD
01
00
03
FF
FD
02
FE
00
FD
02
FD
00
03
FD
01
FD
FD
FD
FE
00
FE
02
02
FF
00
FD
01
03
00
01
FE
01
FD
FD
FF
FF
03
FE
02
03
FD
FD
02
FE
00
FF
FE
00
FE
FF
01
03
FF
FD
FC
FD
FE
FF
FF
01
FD
FF
03
FD
01
FD
01
FF
00
03
FE
FD
00
FE
01
01
FD
00
FF
01
01
FE
03
02
00
01
FF
02
01
FE
02
00
03
FD
00
00
02
00
00
FE
00
FC
FF
02
03
00
FD
00
FF
FE
00
FF
FD
FF
00
FF
FE
FF
FC
03
00
00
FD
00
01
02
00
FF
02
FE
FD
FE
02
02
FE
00
FD
FF
FF
03
FE
01
FE
FE
FD
02
01
02
FD
FF
00
FD
00
FE
01
FE
00
FE
FF
01
FD
FF
02
00
FD
FD
01
FE
FE
FE
00
FD
00
00
02
FE
01
FE
FD
03
FE
02
03
02
02
02
02
00
FE
05
01
00
06
FF
01
00
01
FE
03
00
FB
FE
04
00
FE
FF
00
00
02
02
01
FF
03
FD
06
00
03
FE
02
04
01
FC
FF
02
FF
02
00
FD
FF
00
02
FE
00
FE
FD
FE
00
FE
03
02
01
FB
00
02
FF
02
00
02
FC
02
FC
FE
FE
00
03
02
01
FB
01
02
00
FC
01
FF
FE
02
FD
05
FE
03
FA
FD
02
03
FD
01
03
04
01
01
FF
FC
01
00
FD
00
00
01
01
FE
01
FE
FB
FF
03
00
07
FD
FE
FC
FB
FA
FE
02
FE
FF
FF
FD
FF
04
FE
03
00
02
FC
FF
04
FC
04
FE
FD
FE
04
00
01
02
02
02
FA
FE
FD
01
FE
FC
03
02
FE
00
06
02
FE
F8
00
FE
FA
00
01
FC
01
05
FA
03
03
04
FF
FD
00
FE
01
02
FD
FE
01
FF
00
00
FD
00
02
01
02
FC
FF
04
01
00
FF
01
00
FF
FE
FD
FF
01
FD
FE
02
FF
04
FE
02
02
FD
01
FB
FF
00
FE
00
02
FE
03
02
FD
00
FD
02
01
FF
FC
04
03
FB
02
FE
FD
00
03
FF
FC
FA
FD
01
FC
FF
FF
FE
01
FF
03
FE
02
01
04
03
FF
FC
FF
01
FD
FE
FD
00
00
00
02
03
01
03
04
FE
02
FC
FF
02
FE
FC
03
04
FF
FC
03
00
FF
02
FE
02
02
02
00
01
02
03
02
02
00
03
FF
FE
FF
FF
06
01
04
02
01
FF
00
FD
02
05
FF
F9
02
FF
02
04
FF
01
02
05
02
04
01
FD
FF
02
FF
00
03
FE
03
00
FE
FF
00
02
00
02
03
FF
00
03
01
01
FC
FC
FE
02
00
FE
FE
FD
FD
00
00
02
01
01
00
FE
FD
FC
FD
03
00
00
01
03
01
05
02
02
FF
04
02
00
01
01
FE
00
FE
FE
01
FF
FD
FE
03
FC
00
FE
FD
FC
00
03
00
FD
FB
FE
03
01
FF
02
FC
FE
FE
FF
FC
01
02
FD
FB
FD
05
00
FD
FD
FF
FE
02
00
00
02
01
FF
01
01
FB
02
04
FD
00
FF
06
01
FD
FC
FF
01
00
00
00
FB
01
02
03
02
01
FD
FF
FE
FD
01
01
FE
00
FF
FF
FB
01
02
03
02
00
02
04
FF
FF
FB
01
02
01
FD
00
FE
FD
01
02
FF
FD
00
04
02
FF
FD
FF
FF
FF
02
02
02
00
FC
00
01
FF
FC
FC
FF
FE
02
FE
FE
FE
FC
03
FE
FC
FD
FF
FE
00
FD
01
01
FD
FE
00
00
02
FB
FF
FD
02
01
02
FD
01
FD
00
FF
01
01
FE
FC
FE
01
01
01
FE
FE
FD
FB
FD
02
FE
00
01
01
FE
FD
01
FD
FC
02
FF
03
FE
FC
03
02
FC
01
00
FD
FF
FD
FC
FD
FE
01
00
FE
FE
FF
00
02
FD
FF
FD
02
01
03
FF
00
FF
FE
FE
02
FF
FF
FE
FD
FF
FC
FF
00
00
FD
00
FD
01
FC
FE
FF
FF
02
02
03
02
00
01
FF
FE
FC
FC
FE
FB
00
FD
FD
FE
FE
FB
02
01
01
FC
FD
FF
FC
FC
01
FB
00
FD
FF
02
FF
FF
FB
FE
02
FF
03
FD
01
00
FE
FE
02
FF
FC
FE
00
FF
02
01
FF
FC
04
FB
FF
FE
00
FB
01
02
02
FC
03
03
02
FF
FC
01
FF
FF
00
FE
FF
FD
03
FE
FD
01
00
02
FD
FD
02
FE
00
FB
02
FD
03
FC
02
00
FD
FE
00
FD
FD
FE
FE
FE
00
02
00
FD
03
FD
FC
02
FD
FE
02
FC
FE
01
FF
02
00
FE
00
FD
02
01
FC
02
03
FE
04
FF
FF
FE
FF
00
01
FF
02
FE
05
01
02
FC
01
FD
FF
01
FE
FC
FF
FF
FA
FE
01
FC
02
01
02
FA
FD
02
02
00
00
FD
FE
FB
FE
FC
00
01
00
FF
FD
FB
01
01
FF
FF
FF
FD
01
FF
FC
00
00
00
FD
FA
00
00
FB
FC
FE
01
FD
02
02
FE
04
FE
FC
FE
00
FC
FD
FE
FD
00
FF
00
FF
03
03
01
05
FF
FF
02
FE
FE
FF
FC
FD
00
01
FC
02
02
FD
00
01
02
01
02
FD
03
03
02
02
FF
FF
03
03
02
FE
00
FD
02
FC
02
01
FD
03
01
04
FF
FE
FF
04
08
04
02
02
04
04
00
FF
FE
00
FF
04
FE
FC
01
FC
03
FE
FD
00
00
00
FB
FA
FC
01
FD
FC
FB
02
FC
FE
FC
FF
FE
FE
FD
00
FB
00
FF
FE
01
FB
00
03
FF
01
04
FF
00
FA
FE
02
FF
FF
05
04
FC
FB
00
FF
FD
FE
FC
00
FF
01
FE
FE
FE
FA
FE
FD
02
FF
05
F9
02
FD
FF
FF
03
01
01
02
FF
02
04
FB
01
01
03
FD
02
FE
03
FC
03
FF
FF
FD
05
FF
F8
FF
01
FF
FA
FF
FD
FF
00
02
03
02
00
00
03
01
FC
02
FE
FE
00
03
03
02
03
02
01
FE
FD
01
00
04
02
03
03
FF
FC
FA
01
FC
FE
FC
FC
FF
01
04
FD
FE
FF
FF
02
01
03
01
02
FD
01
FD
FD
00
02
00
FE
02
FE
01
FE
00
FF
FC
02
03
01
FB
03
00
00
FF
01
00
FF
04
FF
FE
FA
FE
FF
02
01
FB
FF
FF
FF
FE
03
04
04
01
FE
FC
00
FD
FE
00
01
FA
02
01
01
00
FE
04
02
00
03
FE
02
02
03
00
00
03
01
01
00
02
01
FC
FF
04
00
00
FC
04
04
FF
01
00
FF
FF
FF
01
FD
05
03
02
01
00
F5
FE
04
FE
FB
FC
FE
01
00
00
00
00
01
02
FE
02
FC
FB
00
02
02
FE
02
01
00
03
FE
04
06
FD
03
00
FF
03
00
03
01
06
01
FF
FD
FE
FF
FC
FC
FF
FF
03
FC
03
00
FF
FE
00
04
FF
02
FE
00
FD
FD
01
FC
02
FF
02
01
FF
FE
FE
01
FC
01
FB
FD
01
FC
03
02
00
FF
02
02
02
FE
FD
04
FF
FF
01
03
FD
FF
04
04
03
01
02
FD
02
02
00
00
00
FE
01
00
01
00
FF
02
00
FF
02
01
01
FF
FD
FF
02
FF
01
01
03
01
FE
00
FF
FF
FD
01
04
02
FE
02
04
00
FF
01
FF
04
06
FF
00
01
FD
01
03
00
00
01
FF
00
FD
FC
FF
FE
02
FF
01
02
FF
03
01
04
00
FB
01
FE
00
FF
FE
FE
FE
01
FC
02
01
FB
00
FD
03
FE
01
FC
00
FE
01
FD
FF
03
FC
FE
02
02
01
00
01
FE
03
03
01
FF
02
FF
FE
FF
FF
00
01
02
01
FF
FB
01
FE
00
FF
FE
02
06
00
FD
FE
FB
05
01
04
02
01
FF
02
00
07
02
02
FD
02
FC
FD
FE
03
03
FF
02
02
FD
FF
00
00
00
02
FB
00
01
FE
FC
03
FE
FC
FF
01
02
00
FE
01
00
FE
FD
03
FD
FD
02
01
01
00
FF
FF
03
FE
02
FE
00
03
FF
01
01
FE
FF
01
01
FF
03
FF
00
FE
FE
00
03
00
02
FF
03
00
FD
04
FE
FE
FE
01
01
FF
03
FD
FF
00
FE
03
FE
FE
FE
02
FE
00
01
FF
01
FD
03
00
03
03
FE
06
FE
FD
FB
01
02
01
01
FF
04
FD
01
05
02
FF
FF
04
01
01
FD
FE
03
05
03
FF
04
02
02
04
FE
00
02
FE
02
FD
01
01
04
02
04
04
FF
FE
02
01
01
02
00
FE
00
02
03
03
FF
FE
FE
01
FF
FC
00
01
02
01
FF
FF
02
FE
FF
03
00
FF
01
01
01
00
01
00
FC
FD
01
02
01
01
03
FF
01
05
03
04
FE
01
FE
01
00
FD
04
00
02
00
02
FF
01
04
02
FF
02
FF
FF
FF
04
00
04
FE
00
04
02
FF
03
00
FE
01
01
04
00
01
01
FF
FC
FC
04
05
04
04
00
01
FF
05
01
02
04
00
00
FF
03
02
00
05
02
03
03
03
00
02
FF
02
FD
01
FB
FD
02
FF
01
FE
01
FA
01
00
05
FE
00
06
03
00
FF
FD
02
04
03
FB
FD
FE
02
00
06
00
FF
FF
03
FE
FD
FF
05
FF
FD
01
FC
FD
02
02
00
02
FF
FB
FE
03
02
02
FD
00
02
FE
00
01
FC
00
FC
00
FD
FD
03
02
00
01
00
FE
02
FC
04
06
02
FF
FB
FE
04
03
01
04
FF
FB
03
02
FF
FE
FE
FF
03
03
FD
00
03
04
00
01
FF
00
00
02
00
FF
FC
02
06
06
04
FF
02
01
01
05
06
01
06
04
00
00
00
05
01
FF
FD
05
00
01
FF
05
01
01
00
02
03
03
00
00
02
FD
02
03
FF
04
01
00
02
01
FF
FF
01
03
02
00
FE
FF
02
00
02
06
05
03
05
02
FC
FE
03
FD
FF
00
03
02
00
FF
01
01
04
FF
07
05
02
00
03
FE
FC
02
FF
06
FF
02
FE
02
FE
FD
02
04
FF
08
01
FC
FB
FD
00
FF
04
FF
01
00
FF
01
02
02
FE
03
04
FF
04
FB
00
FF
00
00
FF
05
00
FD
03
02
FF
FD
01
FD
05
FD
04
01
04
FE
03
03
FE
02
01
03
FF
06
03
FE
00
FB
FD
02
01
FB
02
00
02
01
FE
01
01
03
FE
FF
FD
FD
FF
03
02
FA
00
FE
00
FE
03
05
04
03
FE
F9
FC
03
FE
FF
04
00
00
03
03
01
FD
FF
FD
01
FF
FB
FD
FD
00
04
02
FC
FD
03
FF
FB
02
02
04
01
00
FC
00
FF
FD
FD
FC
FF
01
02
03
02
01
01
FE
FF
01
03
02
FB
00
01
FE
01
FF
FE
03
02
00
06
FE
00
01
FE
FE
02
03
03
00
03
FE
FC
03
03
FF
01
04
00
FC
01
FE
04
00
01
03
FD
FD
FD
01
03
FF
FC
01
FF
03
FF
01
00
01
02
00
FD
02
01
00
F8
01
03
02
03
00
FE
FD
00
00
02
FD
00
01
FF
FE
FE
02
FF
04
05
02
FE
06
FD
FE
00
04
03
FF
03
05
01
FF
FF
05
02
02
00
04
00
02
00
03
05
02
01
03
02
08
01
00
04
FC
02
05
00
01
03
02
03
02
FB
03
02
01
00
FC
FD
01
FF
03
01
FD
05
FE
03
FF
00
FD
04
FF
FE
00
FE
02
03
02
02
FF
01
F8
FE
00
FF
03
FF
05
FA
02
00
FE
05
02
04
03
02
00
05
01
01
FF
FF
07
FF
00
FF
00
01
03
FF
00
01
00
04
01
02
03
03
04
02
02
01
00
FF
03
00
00
FC
01
FF
02
FE
FC
03
01
FF
FF
FC
FE
02
03
FE
FC
00
FF
00
00
00
01
07
00
00
FD
FC
00
02
06
04
FC
00
FA
04
02
FD
FD
FE
03
FE
FF
FB
FE
01
03
08
00
FD
03
03
FE
01
FC
FE
04
FF
01
FE
03
02
FF
04
01
01
03
FD
FD
02
00
FD
FD
03
02
FE
03
01
FD
FF
03
FD
FE
02
FE
04
FC
01
02
FF
02
FC
FE
FF
05
FB
04
FF
FF
04
FF
01
02
03
FE
FE
FF
03
03
05
02
FD
02
01
00
FD
FE
FC
FC
FE
05
FD
01
02
FD
FF
FD
01
01
FB
00
FE
02
FE
FD
FE
FE
01
FD
04
FD
01
FF
04
FF
FE
02
FD
02
FF
01
02
FE
03
FE
01
FD
FD
01
04
03
00
01
FF
02
03
FF
FD
FD
FE
04
03
02
00
03
FE
02
FF
02
02
00
05
01
05
02
02
01
00
01
06
03
FD
04
04
FD
FE
FE
00
02
FD
05
04
03
02
02
FF
00
FE
02
00
FD
FF
FF
01
FE
FD
00
01
FE
FD
02
FD
02
06
02
FE
FD
FE
01
FE
02
FE
FD
FD
FD
03
FE
03
FF
02
02
FE
01
FE
00
05
FF
FE
02
FD
FF
01
FE
01
00
02
FE
01
FF
00
03
00
FE
FF
01
FE
FD
FE
FF
02
05
02
03
00
FC
04
FF
04
00
03
00
FF
06
FE
FE
06
04
01
00
FE
02
02
FF
00
03
00
FF
FC
06
FD
02
01
FF
FC
04
04
00
00
03
01
01
01
04
FE
04
FF
00
02
05
01
00
01
FE
FD
01
04
FF
01
01
03
01
FE
00
02
03
FD
01
FF
FE
FA
01
02
03
FE
FC
FF
FE
05
FE
03
FA
03
FF
01
06
FF
05
FE
00
02
00
00
02
FF
01
02
03
00
FF
FE
04
05
FE
03
01
01
03
FF
FE
03
02
00
00
FF
00
00
FE
00
01
03
04
02
03
FF
00
02
00
00
01
FF
04
01
FE
03
FD
FD
03
04
05
00
01
03
00
00
FC
03
FF
00
01
02
03
FC
00
00
01
01
00
FF
00
FE
F8
01
FF
01
FD
00
01
03
00
02
FF
FD
03
FA
00
FF
04
05
03
FF
FF
02
FE
00
FF
00
FF
FD
03
00
02
FF
02
FD
FF
01
FF
00
00
03
00
FF
01
03
FE
FF
FF
00
03
FF
00
FE
FE
FF
FE
05
00
03
FF
FE
01
FD
FD
03
02
00
01
FE
00
01
02
00
00
02
01
FF
02
02
02
00
03
01
00
FF
00
06
FE
01
01
FF
01
FD
02
00
03
01
01
00
01
FD
01
00
FE
00
FF
01
FF
02
02
FD
00
01
01
01
FD
FC
00
02
FF
00
00
01
FE
01
00
02
02
FF
01
02
FF
02
01
FF
FD
03
03
FE
01
00
03
FD
03
FE
03
04
02
03
00
04
01
03
FE
03
00
02
03
FF
02
FF
04
02
02
03
FF
01
FE
FE
01
FD
00
05
FE
01
02
FD
FF
04
00
FF
FE
FF
03
04
03
FF
FD
03
FC
04
01
FD
FC
FE
04
FD
FE
FD
02
FD
FF
01
FF
FF
00
01
02
FE
FC
00
03
00
00
FD
FE
01
FF
FD
FE
00
02
01
00
FF
02
00
02
01
00
01
00
04
FE
02
03
05
FF
04
02
FE
03
FC
02
04
FF
00
00
03
01
FE
03
02
FF
01
04
01
FE
FF
04
FF
00
FE
00
FB
03
01
FE
FD
03
FD
01
01
01
00
FE
00
FA
04
FD
03
04
02
01
00
FD
FD
00
03
06
03
FD
01
02
01
04
07
00
04
00
FF
FE
FF
04
02
05
01
03
FF
01
01
01
FF
FE
01
03
02
FE
FF
FE
05
00
01
00
05
FF
03
00
03
FD
FE
02
00
02
01
04
07
FB
00
00
FB
FD
02
FF
03
FC
00
02
FF
FF
FE
02
01
03
01
01
FD
FF
00
FF
07
FE
FF
FB
FC
FF
FC
FD
00
08
00
FC
FE
00
00
03
01
02
02
03
00
FB
05
00
04
FE
00
FE
04
05
02
02
FC
FF
FF
03
06
00
01
FE
FF
FB
FE
04
05
FE
02
FF
FF
00
FE
03
FF
01
FB
00
00
00
05
02
FF
FD
00
FD
01
FE
FE
FE
01
FF
02
FE
FF
01
06
FB
FE
01
FC
02
FD
FE
FF
FD
00
FE
01
FF
FC
00
03
FD
FD
01
FF
FE
00
01
FD
FC
FE
04
05
FD
FB
02
00
FE
00
FF
FF
FE
FE
02
03
FD
00
01
03
00
FE
FD
FE
FD
FF
03
01
FC
FE
FE
02
01
00
06
FF
FC
FB
03
FF
FF
02
02
FF
FD
FE
FC
00
FD
04
05
03
FE
00
FF
02
FB
FF
FD
FB
02
02
02
FD
FC
FD
FF
00
03
FE
FF
FC
03
FE
01
FD
FF
01
FD
FE
FE
FE
01
FD
05
01
01
FE
01
00
03
FC
01
FF
FD
07
FF
FB
FF
FC
FE
01
02
00
02
03
04
03
03
FE
02
01
FD
00
FD
FF
FD
03
00
00
FF
FF
FD
FD
03
FF
FE
04
02
04
FF
FF
01
02
02
FE
01
01
FF
00
FE
FD
02
FE
FE
04
01
00
02
01
00
00
04
01
03
02
01
02
02
FF
03
03
03
FC
00
02
FD
01
02
01
02
00
02
FE
FF
FE
FE
00
04
FF
01
02
FC
03
01
02
FA
03
03
FC
FE
02
05
00
FE
00
FE
00
00
FF
FE
FF
01
00
03
FE
00
03
03
FD
FE
FC
FF
00
01
02
FC
03
FB
FE
FD
FE
02
03
02
FE
FC
01
03
04
07
04
01
FE
FF
05
00
04
FE
FE
FD
02
02
FB
FE
03
04
00
02
FF
01
04
02
FC
FF
02
03
FC
04
01
FF
01
04
FD
04
FB
06
00
02
FF
01
01
01
FD
02
03
00
01
FF
03
FE
FF
FD
FE
01
FE
01
01
FE
FF
00
00
02
FE
03
04
FC
FD
FD
03
01
01
FE
00
FE
FC
FD
FF
03
03
05
FF
00
FF
FC
01
FF
01
02
00
FB
00
04
01
02
FD
00
03
04
01
02
02
FF
01
01
00
FE
FD
00
03
04
02
FE
01
02
03
00
03
00
02
00
03
FF
FF
01
04
02
01
00
02
01
FE
00
FD
FD
01
FD
FE
FF
FF
FD
FE
00
03
FE
01
FD
FD
FC
FF
00
FC
FF
FD
00
01
00
01
01
00
FC
01
FE
03
FF
FE
02
FB
02
02
00
FE
02
04
FF
03
FF
03
01
01
FB
FE
04
FE
FE
00
02
01
02
FF
01
FD
FE
06
01
02
00
02
01
02
04
02
03
02
FF
03
FD
FF
03
FE
FE
04
00
00
01
02
01
00
FF
FE
02
FE
03
FD
02
00
FF
00
01
FF
00
02
FF
FC
FD
FD
FE
00
FE
FF
02
00
FC
03
00
01
04
FD
FF
01
FE
FF
FE
FD
03
00
03
03
FF
01
00
04
04
FF
FD
00
FC
FD
00
FF
01
01
02
03
FD
FD
00
FE
02
FF
01
FE
FE
01
FF
00
00
00
02
FD
00
FF
00
FD
FE
02
00
FD
01
02
04
02
FE
00
FF
FB
FE
02
FE
02
02
FF
03
FD
01
02
00
01
02
01
FF
FE
01
FF
FF
FE
00
03
FD
02
FD
FE
FE
02
FD
FE
01
FE
01
01
04
00
FC
02
04
FF
FF
FE
03
FC
03
FE
03
FE
FF
01
00
01
FE
00
00
00
02
FC
FC
FF
FF
FF
FE
01
FD
03
00
02
02
01
FE
01
FE
FE
FD
03
02
00
01
00
FD
01
FE
FD
FE
02
FD
00
00
FF
00
02
01
FE
FF
FD
00
FD
03
00
FD
FD
01
FD
02
01
FF
FE
02
02
02
01
FF
FF
03
FE
00
FD
FF
00
00
FE
01
00
00
FE
FF
FD
FD
FD
FE
FE
FD
01
00
FE
FE
FF
FD
00
02
01
FF
FF
02
FD
00
00
FC
FF
00
01
00
FD
FC
FC
01
FE
FE
00
02
FD
FE
FD
FC
02
FC
FF
02
02
02
01
FF
FC
02
FE
00
FD
03
FE
FC
00
02
FE
FF
01
FC
01
FF
FE
FF
FF
01
FE
FF
01
00
FE
00
FF
FF
03
02
FE
01
00
FE
02
FE
03
03
FD
FC
00
00
00
02
01
00
00
FD
00
FE
FE
FF
01
01
FF
02
FF
00
01
02
FF
00
03
02
FF
01
FF
03
FF
02
01
FF
FC
01
02
FF
FC
00
FC
FD
02
02
03
FF
FE
FF
FD
FE
FF
02
FE
FE
01
01
FF
FF
02
03
FF
FE
01
FF
FE
00
03
FE
FF
00
FD
FE
02
FF
01
FE
03
FE
03
01
FE
FE
FF
00
00
FF
01
03
FF
01
FF
03
01
00
FE
01
FF
01
03
FD
00
02
03
FE
00
FF
00
FC
03
FF
FC
FD
FF
FE
01
FC
01
03
02
01
FE
FF
FF
02
FE
02
01
FF
FF
FF
FF
00
00
01
01
01
FC
01
FD
FC
FC
02
FE
FD
FF
FD
FF
FE
FE
FE
FE
FF
02
00
FD
02
FF
FD
00
FE
FD
FE
FD
02
FE
FF
02
00
FF
FF
01
FD
01
00
FF
01
01
FD
01
FD
01
01
01
03
FD
01
FD
FE
FC
01
01
00
FD
01
FC
00
FC
03
01
00
FF
02
02
01
FD
FF
FC
02
FD
01
FF
FE
FE
FE
FE
02
02
FC
01
00
00
FE
FF
FD
FC
02
00
00
01
02
02
00
02
FF
FF
FD
FD
01
00
01
FD
01
FF
FF
01
00
04
03
03
03
01
02
02
03
03
00
04
04
02
03
03
00
00
04
00
FC
03
FC
02
01
FE
00
FE
04
FD
02
01
04
FF
FF
00
FF
FD
FF
FF
02
02
04
FE
03
02
FF
FE
04
02
FF
00
02
FD
FC
00
03
FC
01
FF
00
03
01
03
03
02
03
03
FE
02
F9
03
FF
02
03
00
02
FE
02
FE
02
02
05
01
FF
02
04
FF
06
03
00
FE
04
02
02
01
00
02
03
FE
03
01
02
FC
00
03
04
04
FF
FE
FF
FE
03
01
00
FF
FF
03
05
FD
03
FE
02
FE
FD
FF
FD
04
03
FE
02
FE
02
01
00
FD
01
00
01
01
01
00
01
00
02
00
FF
04
FD
FD
00
01
FF
03
04
01
01
04
00
04
FF
02
00
FC
01
00
04
00
FF
01
02
02
00
01
FE
04
00
FF
02
03
02
01
01
00
FD
03
04
02
03
FE
FF
06
04
FD
00
FE
FF
00
01
00
01
02
03
00
FD
FF
FF
FC
04
02
00
00
00
FF
FE
FE
00
01
02
00
01
00
02
FE
00
03
02
00
FF
00
03
03
FC
FF
02
01
03
02
FF
FC
01
01
FD
03
01
FD
01
00
01
FC
03
FD
FD
05
FE
FE
01
04
03
07
FE
00
04
02
FF
02
01
01
FE
FD
FE
00
FD
FE
FD
FE
01
FF
FE
04
00
03
FE
04
01
05
FE
00
01
01
01
FE
03
FF
01
00
00
00
FF
02
00
04
01
02
01
FD
00
00
FF
00
05
FE
FF
02
05
00
00
03
FC
01
01
01
FC
FE
04
01
FE
FE
FD
02
FE
FF
00
FE
FC
00
00
02
01
02
03
01
FE
FA
01
FE
FF
FD
FD
FD
01
03
FF
05
FD
FD
00
00
FA
00
FC
02
FF
FE
FF
03
FE
00
FD
FD
FC
FE
FF
00
FE
00
FD
FF
FC
FF
FD
00
FD
FB
01
00
01
00
03
02
FF
FD
01
FE
04
00
FD
04
01
02
04
05
00
02
01
03
03
00
00
00
03
01
FE
06
01
01
04
FF
FE
03
03
01
00
FE
04
00
04
02
04
FD
FF
04
00
03
FF
05
03
FE
01
00
00
07
01
01
00
FC
04
03
01
FE
04
04
FF
FF
03
FE
FD
02
00
04
00
01
02
03
03
02
00
00
02
FE
00
FC
FD
03
03
FF
02
FF
FF
FF
06
02
FD
00
02
02
FE
03
FF
01
01
04
01
04
04
03
02
01
FC
FF
00
FF
02
04
FD
03
00
01
04
FD
00
FC
F8
02
03
07
FE
F9
02
FD
00
FF
FE
00
00
04
01
FD
FF
FF
00
01
FD
00
03
F8
03
FF
04
FF
FE
FE
01
FE
01
FF
FF
02
00
00
FF
03
FE
03
FF
04
00
02
00
FE
04
FA
FF
01
FF
FD
04
00
FA
04
FE
FC
FD
00
FC
FA
FB
FF
FF
FF
01
F8
02
FD
FF
FE
02
F5
01
04
00
00
FF
03
FF
03
01
F5
FD
FD
FF
00
FC
F8
00
FD
FB
02
FB
03
FF
03
FE
F5
FB
01
FD
01
FF
FB
FD
FC
02
F9
01
00
FD
03
FD
FA
F8
01
FF
02
00
FE
FC
05
FD
02
FC
FF
FF
FD
02
FB
FF
00
00
FA
FC
F6
FC
03
FE
00
FB
02
FC
01
03
FC
FC
02
01
FD
02
F8
FF
01
02
00
00
04
00
06
FC
FC
F8
01
04
FE
FA
FE
FD
F8
FF
02
FE
04
02
05
FB
FD
FD
04
02
01
FE
01
00
01
FF
03
FE
04
03
00
01
00
FC
05
FF
FB
FE
FE
03
FE
01
FF
FF
FF
F5
FE
FA
FE
FD
04
FD
FE
FE
01
03
FD
02
FF
FE
00
FC
03
FC
FF
FC
FF
02
FF
02
05
03
FF
02
02
03
04
04
FE
01
03
FF
03
04
FF
FE
02
03
02
02
FF
01
04
FE
00
00
07
FF
05
04
01
04
07
00
03
FF
05
01
FD
02
FC
03
03
04
FE
FF
FE
02
04
FD
03
02
01
00
FF
05
02
FE
04
02
00
03
01
FE
02
01
05
00
02
03
FD
01
02
04
FE
FF
FC
FF
01
04
01
00
FF
01
FF
FB
02
00
03
02
FE
02
FD
FF
03
00
FC
00
F9
02
FF
FF
FE
05
04
01
FD
FF
FB
05
FF
FD
FB
FF
FB
00
FD
FC
01
FD
02
FB
FB
04
FA
00
FB
00
04
03
01
02
00
FD
FE
FD
02
03
03
02
01
03
03
02
03
FE
FF
00
03
04
FE
FC
FB
FE
FF
02
FF
FE
04
FF
02
04
FF
04
01
FE
04
FE
FF
01
01
FE
00
03
01
00
FF
FF
FD
02
00
04
03
04
03
FF
FD
F6
FF
03
FF
F8
FA
FC
FD
02
00
FF
00
00
FB
FB
00
FC
03
FD
FD
FC
00
01
02
FE
FD
FE
FD
04
00
FF
FC
FE
FF
FE
FE
FE
00
00
FF
FE
FF
FF
FD
02
FD
FE
FF
05
FA
FC
00
03
02
FE
03
01
00
00
04
FD
01
03
00
04
FE
FE
02
04
04
FF
FE
FE
FF
01
FF
02
FF
FE
FE
FD
02
00
01
FE
03
FE
01
01
FF
03
FE
01
FC
FD
03
FA
01
00
FD
00
FF
03
FF
FF
00
03
00
FF
FC
FD
FF
FE
FD
FE
00
01
FD
FE
02
02
05
FC
FB
FD
FF
02
FE
02
FF
03
FE
01
01
FE
01
FF
05
FF
00
FE
FF
01
FD
FF
01
00
FC
06
03
03
FD
02
02
FE
FE
03
00
02
FF
FF
FF
00
FD
FF
00
FE
00
FD
02
FE
FF
00
FD
FD
FC
FF
01
01
FE
FA
00
FD
FE
02
00
FD
02
02
03
FD
FD
00
FE
FF
01
FB
01
FF
04
01
01
00
03
00
FA
FD
FE
02
00
01
00
02
00
FF
FF
03
00
04
FE
02
00
FE
FC
FB
FD
00
03
05
03
FF
00
00
FF
03
01
06
00
03
FE
00
02
01
02
05
01
00
00
FD
02
FF
FE
FF
FF
00
03
01
00
FE
01
FE
FF
FE
FE
FF
00
03
01
05
FC
03
06
FF
FD
00
01
FE
FE
04
02
04
FD
02
02
02
FF
FF
04
04
FD
FF
FE
02
02
00
FE
02
01
01
03
03
02
FE
01
05
01
FE
05
01
00
00
04
02
05
01
03
01
00
00
FF
04
FD
01
FF
01
FE
FD
00
FF
04
FE
FE
02
00
00
01
FF
03
FE
04
FC
01
03
01
00
02
03
FB
04
FB
02
03
04
02
02
01
FF
05
FD
FF
06
04
FF
FC
03
00
03
00
03
00
04
04
00
00
03
03
02
FE
00
05
FF
03
FF
01
03
00
FF
04
01
04
00
FC
FF
02
02
03
00
00
FE
02
FC
FC
02
FE
01
02
01
FF
01
04
03
03
03
03
02
00
01
01
00
00
01
02
FD
FE
00
02
01
00
03
03
FD
02
FE
01
01
FC
FC
04
FD
FA
01
00
FE
FF
00
FC
FE
01
FD
FA
00
FE
00
05
01
05
FE
01
FC
03
FD
FF
FF
FE
03
FE
FF
01
FC
00
00
05
04
02
04
04
FE
FB
02
00
00
FF
FD
FF
FE
FE
FD
04
FF
02
03
04
03
FF
04
FE
FF
00
FF
FD
04
05
02
FB
FD
FF
05
00
06
FF
02
07
FD
04
03
03
FD
00
FE
02
02
FE
FC
FE
03
F8
FD
04
06
FD
00
01
FC
00
FF
03
FD
05
01
00
FD
FC
03
01
02
03
FF
FE
02
03
01
FE
01
04
00
FF
FD
02
01
00
FF
05
02
04
04
01
00
01
01
00
03
03
FC
FF
00
01
04
03
FC
00
04
06
FD
03
03
02
00
07
01
06
02
00
00
06
02
FE
FE
02
02
00
FD
FC
02
01
FB
02
03
01
FD
08
00
00
FD
FD
FE
00
FE
02
00
02
00
03
00
FE
01
FF
00
FE
FD
01
FF
00
00
FE
FE
FE
02
05
FE
00
FF
03
04
FD
04
00
04
04
00
06
00
05
02
FE
FF
01
06
01
02
03
02
FF
00
FB
FD
FF
FD
01
FA
03
03
FB
FD
FE
00
00
FD
FB
02
FC
FD
00
03
02
FB
03
04
00
02
05
FC
FD
02
04
02
FB
00
03
FC
FF
FE
FF
01
01
04
01
FD
FD
FF
02
FF
FE
02
00
FB
03
FF
FD
02
04
02
00
02
FF
FC
00
01
FF
00
00
FF
FE
FE
01
FE
01
FE
02
03
FD
00
00
FF
FC
00
00
FE
01
02
FE
FE
FE
FF
01
00
01
FE
03
00
01
FC
02
FE
01
FD
FD
FF
FF
01
00
01
02
01
FF
FE
02
03
00
FE
FE
FF
FE
02
03
FF
01
01
04
FF
01
00
01
01
00
FF
FC
00
02
01
FD
FE
02
01
02
FF
01
02
01
00
01
00
FC
FD
FF
FF
01
FD
FE
FD
02
01
00
00
01
FF
03
FD
FE
06
FF
FE
FD
04
F9
01
FE
02
FD
FF
FF
FF
01
FE
FE
01
FC
FF
01
FF
01
00
02
03
FC
03
05
00
FE
02
01
FE
00
02
02
04
01
FD
01
00
00
FE
00
FF
FE
01
FB
FE
02
00
FF
01
FC
FF
00
03
03
FD
02
FE
FF
02
FE
01
FF
FC
FB
01
01
FF
FB
FD
FF
04
01
FF
FE
03
01
06
FE
03
04
01
02
00
FD
FF
02
01
FD
03
FD
00
00
03
FC
00
01
04
FF
01
02
00
FE
02
00
02
02
FF
FF
FE
FD
01
FC
FE
FF
04
03
02
FD
FE
01
FE
FD
FF
00
02
02
FF
03
00
FE
FD
01
01
FA
01
FE
FF
03
01
FE
03
FE
FF
FE
02
02
01
04
FE
01
03
02
01
FF
03
FB
00
01
02
02
FE
02
02
01
03
03
01
00
FE
FD
00
FE
FE
FF
04
01
01
04
03
FF
04
04
03
00
FD
03
FE
04
02
01
02
05
02
00
02
FF
FF
01
02
FE
03
00
02
05
01
05
02
FF
FA
01
03
03
FE
01
FE
FC
FF
FD
04
02
03
02
03
FD
F7
02
01
FE
F8
00
01
FC
FF
00
FE
00
FF
00
00
00
01
FE
FE
FE
FE
FF
00
03
FE
00
03
FC
03
FF
FF
FC
00
FF
FC
01
01
01
01
03
00
FD
FC
03
01
FB
02
FF
FE
03
FE
FF
00
FF
FE
02
FF
FF
FE
FD
FF
02
FD
FF
FD
02
03
FD
FD
01
FE
FF
01
02
FD
FC
02
01
FF
01
01
00
FD
FD
FE
01
00
01
FD
FF
01
FE
03
03
FF
FD
01
FD
02
00
FF
03
FC
01
FD
FD
FD
00
FD
01
FF
FE
FC
FE
FD
FC
01
FF
01
FE
00
01
FE
01
01
02
FF
01
FE
FF
01
01
00
FF
01
FF
01
FD
FE
FD
01
01
02
01
FD
FF
FD
FF
02
FF
FF
FC
FE
02
03
01
FD
FD
FF
FF
00
00
00
FE
FB
03
FD
01
FF
00
01
01
FD
01
FE
FE
01
FF
00
01
FE
03
FD
FF
02
02
FD
FE
FD
FF
FF
03
01
FF
FE
02
FD
03
FD
FF
FE
02
FF
FD
02
FE
FD
FF
FE
FC
FE
01
00
01
02
00
FC
FC
FF
00
FD
FE
00
FD
FE
FF
FE
00
FD
FD
02
FD
00
02
02
02
FF
03
FD
00
00
01
FD
01
01
FC
FE
02
FF
FE
01
02
02
02
FD
FD
01
02
02
FD
02
00
FD
03
FC
01
00
01
02
FF
02
00
FF
02
FE
01
FE
FC
02
04
FF
01
FD
01
01
FE
02
FE
00
02
FE
FD
02
00
FF
02
FE
FF
FF
01
01
02
FD
01
00
FD
01
00
02
00
01
FD
00
FD
02
FF
02
01
01
FF
01
01
FD
FF
01
02
FF
FD
FF
01
00
02
FE
00
01
FF
FE
FD
04
FE
FE
01
FF
02
02
02
FE
FE
FD
03
FE
FF
FF
FD
FE
FE
FE
FD
FD
01
00
01
FE
FD
02
FF
00
FD
FD
FE
02
02
FE
02
02
03
FE
00
FE
02
03
01
01
FF
00
02
FE
01
00
00
01
FD
00
FD
02
01
FE
00
FF
00
02
FE
FE
FF
00
01
02
01
00
00
00
FF
FF
02
02
01
FF
03
00
02
02
01
00
01
00
FE
02
02
FF
03
FF
01
FD
FF
FD
FE
03
FF
01
00
FD
02
02
00
03
02
FE
01
02
FF
FD
01
FF
FC
02
01
02
FD
00
00
FD
FF
FE
02
FD
FD
FF
02
03
FC
01
03
01
02
00
FD
FF
FC
00
01
01
FD
02
FC
02
00
FF
00
FF
FD
03
FE
00
01
02
FD
FF
FE
02
FF
FD
02
FE
01
FE
01
02
FC
01
FD
02
03
02
02
FC
FE
FF
02
FD
02
FF
FE
FE
FF
FE
02
03
FF
02
00
00
01
FF
FF
FF
01
FF
02
FF
01
00
00
FD
FE
FC
FF
01
FD
FD
FF
00
FE
FC
FD
FC
00
FD
FD
00
FF
FE
03
00
FF
FD
FF
FD
FE
01
01
00
FD
01
FF
FF
00
01
01
02
FE
02
01
FE
02
01
00
02
FE
00
FC
02
01
00
FD
FF
00
FF
FC
FF
FE
03
FD
FE
02
FF
FE
FE
FD
02
FD
FD
FE
01
FC
02
00
FE
FD
FD
FF
00
FD
01
01
FD
02
FF
FF
02
FE
FE
01
FC
FE
01
FE
02
00
02
FF
01
02
02
FD
02
FF
01
FE
02
FE
03
FD
00
01
FC
FE
FF
00
FE
FD
FF
02
01
FF
02
FC
01
01
FD
FF
00
02
02
01
FD
03
01
02
01
02
01
00
03
FE
02
00
FE
01
FF
00
FF
00
01
FC
FF
01
00
FF
01
FF
FF
FD
FC
FE
03
01
FD
FC
03
01
FC
FF
02
FE
00
02
FD
FC
03
FE
04
02
FD
FD
01
FE
01
FF
01
FF
00
00
01
FE
FE
FC
01
FE
FF
01
FE
FE
01
00
FC
FE
FE
02
FE
FF
01
02
FF
FC
FE
FE
01
FC
FE
01
FC
FE
FF
FE
FE
FE
FF
FE
02
02
FF
FD
FE
FF
00
FE
FE
00
FE
FD
01
FE
FF
01
FE
FF
02
FC
FF
00
FE
02
FD
00
FD
FF
00
03
FF
FF
00
01
FE
01
02
FF
FF
FE
03
FF
FF
FF
FD
FD
FF
FC
FD
FD
02
FF
00
FE
01
00
FD
02
FE
04
00
00
04
01
FF
04
FC
00
00
03
00
02
02
FF
FD
02
FF
FF
02
00
05
01
01
FE
FE
FD
02
FF
02
FE
FC
03
00
00
04
FD
03
02
01
04
FD
00
01
FE
FC
03
FD
FB
FC
01
02
01
01
FA
FE
01
F9
FD
03
FC
02
FD
03
02
FF
02
FD
FE
01
00
FB
FE
02
00
01
FC
FC
FD
FC
01
02
02
03
FD
01
FE
01
FC
03
00
01
03
02
FE
FE
00
FF
02
03
00
FD
00
FE
00
01
FB
03
FF
03
FE
FD
00
01
05
02
01
02
03
03
02
FD
01
FE
FF
FF
04
FE
01
FE
02
01
01
07
FF
FC
FF
FA
FF
FD
FB
01
00
FD
01
02
02
00
01
06
F8
FE
FD
01
FF
04
FB
01
00
02
00
00
00
FE
05
FF
02
00
02
FF
01
00
FF
FE
FC
FF
00
FD
FF
FF
03
02
01
FE
FE
00
03
00
01
01
01
FF
FC
FD
FE
02
04
01
03
02
00
FC
03
01
02
FE
01
02
FF
FD
FF
FC
04
00
04
03
01
FA
02
01
FE
00
FE
03
FD
05
00
FD
00
03
00
02
FF
FD
01
01
FD
01
02
05
FB
02
FB
00
03
05
00
03
FF
01
FF
01
04
FD
04
FB
FE
FF
FF
02
FD
04
FE
FC
03
02
01
00
07
01
00
FF
02
02
02
05
01
03
04
02
04
01
01
01
FC
FF
FD
00
02
FF
01
02
FB
FE
FF
04
00
03
04
01
01
01
01
02
FE
02
00
01
FF
03
07
02
00
FD
00
FE
00
FF
02
FF
FB
FE
FF
04
05
01
00
01
FB
FE
02
FD
00
03
02
FE
FF
FC
00
00
FE
04
04
FD
01
FE
01
00
00
FF
05
FE
02
FD
FF
03
02
FF
02
04
05
FD
FF
00
FE
FF
03
FF
00
02
02
03
FD
FD
04
03
04
FE
FD
01
01
02
03
FF
00
FF
01
FE
FF
02
01
FF
00
FD
FC
FE
00
00
FD
01
FF
01
02
FE
FF
01
04
FE
04
02
FD
FF
FD
FE
FC
FE
FF
00
03
01
02
FB
00
FE
02
00
FD
04
03
00
01
00
02
01
00
FE
02
02
00
FF
02
04
FD
01
02
FE
02
01
FE
01
FE
00
FE
02
FD
02
FE
09
03
04
03
FE
02
00
02
FF
01
01
FE
02
FF
02
02
02
FF
02
00
01
FE
FC
00
FF
FF
01
02
02
00
FF
FF
04
02
00
FC
03
FE
00
00
FF
FE
02
FD
FD
03
03
01
FE
01
FD
03
00
04
04
03
02
02
01
FF
FC
03
FE
02
FD
02
01
FD
FF
FF
FF
02
01
05
01
FD
FD
01
04
05
FF
FE
FE
05
02
00
02
FF
FC
03
04
FE
01
01
FF
00
FF
01
02
06
FE
FF
FC
FE
00
06
01
01
00
00
FE
04
FE
01
FF
01
FF
FF
00
02
01
00
02
05
FE
03
01
00
FD
03
FF
FD
FF
FF
01
04
02
FF
02
FF
FA
FE
03
00
FC
02
FE
FB
01
02
FD
FF
FC
FF
03
01
FE
FF
FE
03
FF
FF
FE
03
02
FF
02
05
FD
04
01
FC
FE
01
01
FE
04
FD
02
01
FE
00
03
FF
FD
03
01
FE
01
04
FE
FF
04
FF
05
FC
03
00
00
00
04
01
FE
01
FC
03
FF
02
FE
03
00
01
00
01
FF
FE
FE
FE
FF
02
FE
FD
03
00
FD
02
03
03
02
04
FF
02
03
FD
00
00
01
FD
FF
FE
01
FF
01
FF
03
FE
02
FD
FB
FD
00
02
04
FA
FC
FE
FF
02
01
01
00
FF
FF
01
04
FF
01
FE
01
F9
00
03
03
03
04
FC
FE
FF
00
02
02
00
03
04
FF
FB
01
00
04
FE
00
FE
01
00
05
FD
02
00
01
00
03
FF
FF
FE
03
FF
FC
01
03
FD
FE
FB
FD
FE
FE
01
FF
FF
FF
FE
00
03
FF
FE
02
FE
FC
FE
02
01
FE
01
01
01
03
03
00
00
02
01
00
FE
01
FE
FE
FC
FC
FF
FD
FC
03
FC
FC
01
01
00
02
01
FD
02
FC
FE
FF
02
FE
02
FD
FC
02
02
FD
FD
FC
FE
00
FD
FD
FE
FE
01
03
03
FF
01
FF
FE
FE
FD
01
FE
FE
02
01
FD
FE
FC
00
00
FC
FC
FF
FC
01
02
FD
FF
02
FE
FD
01
FF
FE
FE
FD
FF
FC
FF
FE
01
FD
FD
03
01
00
FF
FF
02
02
FE
02
FF
FD
FE
FC
FF
01
FE
FF
FE
FD
FF
FF
FF
FD
FE
FE
FC
FF
00
00
FB
FE
FE
02
00
FC
FD
FE
FC
FE
FF
01
FB
FD
FF
FF
FF
FD
02
FF
02
01
FD
00
01
FD
03
FE
FD
FE
FF
FC
00
FD
00
FC
01
FE
FE
FF
FE
01
02
FD
03
01
01
FE
FC
FC
FD
FE
03
FF
FF
00
02
03
FF
00
02
FF
00
FD
01
FF
FE
00
FF
FE
01
FB
FD
FD
03
FE
03
FD
FF
FF
FD
01
FE
FE
FB
01
FC
01
FF
02
FD
02
02
00
02
02
01
FF
00
FD
FE
FD
00
FF
FD
FF
01
01
FD
00
01
03
01
02
01
FD
FE
FF
FE
01
FC
03
00
02
03
01
FE
03
FC
FB
00
02
FF
FF
00
FD
FC
02
01
FD
01
FD
FE
FE
01
01
02
FF
FF
FD
FD
FC
FF
01
FD
FE
FC
01
01
FF
FD
FE
FC
00
FD
00
02
FE
00
02
00
FC
02
02
FD
FF
01
00
FE
00
FD
FC
FF
00
00
01
FC
00
FE
00
FC
FE
FD
FE
FF
02
03
00
FE
FE
02
FF
00
01
00
03
FD
00
01
FD
02
00
FD
FF
00
02
01
02
FD
FD
00
FD
FD
01
01
FF
FD
FF
01
00
FE
01
01
FC
FF
FF
FC
FE
01
01
FD
FD
FD
02
01
FF
FD
03
FF
FF
FD
00
FD
FF
FF
01
FD
01
00
01
FC
01
FF
01
FC
02
02
FD
02
FC
01
02
FF
FD
FF
FF
02
02
FE
FF
FF
FD
00
00
FF
01
FD
03
FC
FF
00
00
00
00
FD
FF
FD
FD
FF
FE
01
02
FD
02
FD
00
FF
FE
FD
00
01
FD
02
FD
FC
FD
FF
01
02
FE
FD
FE
FE
FD
03
00
FC
FE
FC
02
02
FF
FF
00
03
01
FE
00
FF
FC
FE
01
FD
02
00
01
FF
02
01
01
00
FE
00
FD
FD
FF
02
FD
FF
FF
FE
00
FD
02
02
02
FF
FF
FE
FE
FE
FF
02
FF
FE
FE
00
FF
FF
01
00
01
FF
FD
FE
FD
FD
FF
FD
FF
FE
01
02
FF
00
FE
01
FE
00
02
00
02
FF
00
FC
00
01
FE
01
FC
FE
FF
02
00
FD
FD
00
FD
00
00
01
03
FE
02
00
03
FF
FF
00
FC
FD
FF
00
FE
03
FE
FD
FF
01
03
FF
FE
FD
03
FE
FE
FF
FE
01
00
FE
FE
FD
FE
01
FE
02
01
FE
02
01
01
01
01
01
03
00
00
FE
FD
FE
00
FD
FF
FE
FC
02
00
01
FE
FE
00
02
FD
FD
00
FC
02
02
FC
00
03
00
FE
FF
FF
FC
03
00
FF
FC
01
FE
FC
02
00
FC
FE
02
FE
FF
FF
FF
FE
00
FE
02
02
FD
01
02
FF
FD
FD
01
01
FD
FF
02
FD
00
FF
FE
00
00
FD
02
FF
FD
FE
FE
FF
FF
02
FD
00
02
FF
FE
FF
FE
03
FE
FD
FE
00
FE
FE
FE
FD
FC
00
FC
FD
FE
FC
FF
FF
FC
02
02
00
01
FF
01
01
FC
03
FD
00
00
FD
FE
02
00
02
FD
00
02
FF
01
FE
FC
01
FF
FD
03
FE
FD
02
02
03
02
FE
03
00
FF
01
FE
FC
FE
FC
FD
FE
02
FE
02
03
01
03
01
FD
FE
02
FE
00
FC
02
FD
FE
00
FD
FE
FE
FF
02
00
FE
FC
01
01
01
02
01
00
03
FD
FD
02
01
02
FF
FD
02
FF
FD
00
01
FE
FF
FD
02
02
00
FF
FD
01
FD
01
FE
00
00
FC
FF
FD
FC
FD
FF
FD
00
FF
00
FF
FE
FC
02
FD
00
FF
04
01
FD
FE
00
FC
04
02
FC
FF
01
01
02
02
02
02
04
FD
00
00
00
02
03
FE
00
FE
FB
01
FD
02
03
00
FE
FF
03
02
01
02
FB
FD
02
01
01
FF
00
01
FD
00
FE
FE
01
FB
02
FC
FD
FE
FF
01
FD
00
FE
00
02
02
FE
FF
00
FD
FC
02
FC
01
01
03
FB
FE
FC
02
01
FE
FE
FF
FF
FD
FF
02
01
02
00
00
01
01
02
00
FE
01
FD
FD
00
FE
FE
01
00
01
00
01
00
FE
00
FF
FB
00
FD
00
FD
03
02
FF
FF
FF
01
FD
04
01
02
FC
FE
FE
FB
00
02
01
01
FC
FD
00
FE
02
FD
FE
01
FE
FF
FF
01
FF
01
02
05
FD
FF
FC
FB
FE
FF
FF
FE
FF
FC
FC
04
00
03
FC
01
00
FD
00
FE
FD
FD
FE
FD
03
FF
FD
FD
FC
FF
02
FF
FC
04
FD
01
FD
FE
FC
FF
FF
FF
FE
FC
00
01
FF
FD
01
FF
FF
00
FF
FB
FE
FC
FD
FF
FE
00
FC
00
FE
FB
01
01
FE
FF
FF
00
FF
FD
FD
FC
FD
02
FC
00
FE
01
FE
02
01
01
FE
00
00
02
00
02
FC
01
FE
02
01
01
FC
02
01
01
FF
01
00
01
03
FB
01
FF
00
FF
FD
00
FE
01
FF
FF
FD
00
01
02
FD
02
FF
00
00
FD
03
FD
FC
FC
FB
00
FC
03
00
02
FF
FE
00
01
03
FE
FE
FE
FD
FB
00
01
FD
04
01
00
01
FB
03
01
03
02
01
FD
FC
FD
01
00
01
00
FE
FE
FF
FC
FD
FE
FD
FC
01
FD
00
03
00
FD
FD
FF
FD
03
02
01
FB
01
FE
FB
00
FD
00
05
FF
00
FE
00
FF
FD
00
01
FD
02
FF
FF
00
FF
02
01
02
FD
04
FE
00
FD
02
FF
FC
04
FF
FD
FF
FF
FF
FF
FC
FD
02
FB
01
FE
02
FF
FF
FD
FE
FE
FE
FD
FE
FE
03
02
FF
02
00
02
FE
FF
00
FC
00
00
FE
FC
FD
FF
FD
00
02
FE
FE
01
FF
00
02
01
FF
FE
02
02
FE
FE
FE
02
FE
01
FF
00
02
FF
02
FF
00
FE
FD
00
03
03
01
01
02
02
02
FC
01
01
00
02
02
FF
00
02
00
FD
FF
FD
FF
03
01
FE
00
FE
FE
FF
FE
01
FE
02
FD
FF
03
FD
02
01
03
FF
02
03
00
01
FE
FE
FF
00
02
FF
00
01
FC
FF
01
FD
03
FE
01
FC
03
01
02
FD
FF
FE
00
00
00
FD
00
01
FF
01
FE
01
01
FD
03
FF
02
02
01
02
03
FE
01
FE
FF
FF
00
FD
02
00
02
FE
FD
00
01
FE
01
01
00
FD
FD
03
02
FD
03
FF
00
FF
FC
02
FE
FF
FE
FD
00
01
FC
FE
00
02
03
FD
02
FE
FD
01
FE
FF
FE
FE
FE
02
FF
00
01
FD
FF
FD
02
02
FF
03
FF
03
FF
00
FD
01
FD
FF
00
00
FF
01
FE
00
FF
00
01
FE
02
03
FD
FD
FF
FE
00
02
FD
00
00
00
00
02
00
FF
02
02
FF
01
FE
FD
02
FF
02
00
FD
02
00
FF
00
01
01
01
FF
FF
03
FE
02
01
00
01
FF
FC
FD
00
01
00
01
00
01
FC
02
00
FE
03
FD
02
FF
FF
02
FF
FE
FF
FF
00
02
FF
FD
FF
02
FE
FC
00
01
01
FF
01
FE
FE
00
FD
FD
01
FF
00
FE
00
01
FF
FF
FE
00
FD
01
FD
02
00
FC
FF
03
01
FF
FE
03
FF
FD
02
FE
FF
01
FF
00
FF
FE
FE
FD
FD
02
00
01
03
FE
02
01
FE
FC
00
00
00
FE
01
FD
00
02
01
FF
FE
01
01
FD
00
FF
02
03
02
FD
FE
FD
FF
FF
01
FD
FF
FE
FE
FF
FF
FF
FF
FF
00
FF
FC
FF
FE
FE
FF
FE
02
00
01
FF
01
00
FE
02
FF
FD
FE
00
00
03
FF
01
FE
05
03
04
05
03
02
04
04
FF
03
FE
FE
00
02
03
00
FE
FB
01
FD
02
02
06
FD
FE
00
FB
04
FF
FF
00
02
00
FD
FF
01
04
02
04
FF
01
00
FD
00
FE
03
01
00
00
FE
02
02
02
03
02
01
02
02
07
01
FF
FD
01
FF
02
01
00
FF
FF
FD
FD
01
02
00
03
04
01
FF
FF
00
03
FD
03
FE
02
02
FF
04
FD
FB
FE
01
FD
FB
FE
FC
02
FB
FD
FD
01
FE
01
04
F9
FB
FF
00
FB
02
FE
03
FC
FD
FD
FB
00
FE
FF
FD
FF
01
00
FE
02
01
03
01
FD
01
FF
00
FE
00
02
01
FE
FF
03
02
04
F9
00
00
FF
FE
01
00
FE
FD
F7
FF
03
03
FD
FE
FC
FB
FB
00
03
03
00
03
00
01
04
00
FF
F9
FC
FD
00
F9
FC
FF
00
03
01
FF
FC
FE
00
04
FC
FE
FD
FF
FE
FD
FD
FF
F8
01
FF
FE
01
04
FF
02
01
FC
02
FE
00
00
00
FF
FF
FE
FF
FE
01
01
FF
01
02
FD
00
00
FF
FD
03
FC
FF
FF
FC
02
FF
FF
FF
03
FD
01
FA
05
02
00
FF
00
02
FE
01
02
FC
02
FE
00
03
03
03
04
FD
FD
00
02
00
00
03
F9
01
01
FF
02
03
FE
FD
00
00
03
FC
00
00
FD
03
FD
02
FF
01
FF
00
01
00
FF
03
FE
00
FF
01
00
02
FD
FF
06
03
FF
02
01
FE
04
03
02
01
00
00
01
02
02
FE
03
00
FF
FF
01
01
FF
02
FE
01
03
04
02
02
02
FE
03
FE
03
02
00
03
04
FE
FF
03
FC
02
FC
FF
01
01
FE
00
FF
03
02
00
FF
02
FE
01
FF
FC
FE
FC
FF
02
01
03
00
02
01
01
02
FF
01
00
FE
FF
FE
FF
00
01
03
03
00
02
FF
04
03
02
02
00
00
FF
FD
FF
FF
03
04
03
02
FF
FD
FD
01
00
02
FE
FF
01
02
04
01
02
03
03
01
FD
00
FF
FF
03
02
FC
FD
FC
FE
FF
04
01
FF
07
FF
02
03
FE
02
FF
08
02
FC
FF
01
FF
01
03
FE
03
01
00
FE
FF
01
01
05
FD
FE
FF
FF
05
01
01
FE
01
FD
00
00
07
FD
FE
FC
01
FB
01
01
FF
03
FF
02
05
FC
03
02
FD
03
FF
FF
01
FC
FF
FF
FB
05
00
FF
03
FF
00
FE
FF
01
03
01
FF
00
03
FE
FD
FD
04
FF
02
00
FE
FE
FC
FE
02
03
02
FD
00
FF
FC
01
01
02
01
01
FE
FD
FD
01
03
05
FF
01
02
02
FF
00
01
00
01
03
00
05
01
FF
00
FB
FE
02
FD
FE
02
04
02
00
FF
00
03
00
00
01
02
00
03
FF
FD
FE
FC
06
03
01
FF
01
00
00
01
03
FE
02
00
FE
00
03
02
05
00
FF
FC
01
00
00
FC
FF
FF
FF
FD
01
FF
03
FF
04
FF
02
00
00
FF
03
01
FE
02
01
04
01
01
05
FD
01
04
02
FF
00
FF
FD
FF
01
03
FA
FF
FE
FC
FF
03
02
04
03
FE
00
02
06
FF
01
FE
03
00
03
FF
01
FB
00
FF
00
FF
FE
00
00
FE
FF
FE
FD
FE
03
03
00
FF
FD
FC
02
FF
01
FF
FD
FE
00
03
03
02
02
00
FC
FF
FE
02
02
01
FE
FF
FF
02
03
04
FD
03
01
01
02
01
03
FE
FE
00
01
00
01
FF
FF
02
FB
03
03
FE
02
FC
02
00
01
FC
FF
FF
01
FB
00
01
01
FD
FF
FD
04
06
02
FF
FD
03
00
FE
FF
FD
FE
03
01
01
FF
01
03
01
FF
FE
FF
03
02
00
03
01
02
02
02
FE
FF
FE
02
02
06
FF
FC
00
03
FE
04
03
02
02
01
FD
01
FF
FE
03
04
00
FF
00
02
FC
00
05
00
FD
02
02
FC
01
02
FF
00
01
00
03
FD
02
FF
FD
00
FD
04
FC
FE
FD
02
01
FC
02
FD
FE
FB
FF
FD
03
FF
FC
01
00
FF
FB
FD
03
06
FE
01
FD
FC
00
FE
05
00
FB
03
01
01
FD
00
FF
02
FF
FC
FF
FF
FC
03
00
FF
FE
FE
00
FD
04
04
FC
03
FF
FE
FA
04
01
FF
FC
00
00
03
04
02
00
00
FC
06
01
01
FC
FF
FE
FF
FD
FB
00
02
FF
04
FA
03
FE
03
01
FB
FC
FD
FF
04
FD
FD
FC
FD
00
01
FC
04
00
02
01
FD
FD
FC
02
01
FE
FB
00
FE
00
01
03
01
04
03
FE
00
00
00
03
02
FD
FF
03
FE
01
01
FC
01
FD
01
00
02
01
FC
FF
01
03
01
FD
00
FD
FF
00
01
FF
FE
FF
FD
05
00
FC
FC
FF
FE
00
FB
01
FF
02
00
00
03
FE
FB
01
02
FF
01
02
FE
FF
FA
03
03
FF
02
FF
01
02
00
FD
FE
05
FE
02
02
00
03
FD
FE
FE
02
00
01
02
01
FF
03
04
FC
FE
02
FF
01
00
01
FF
01
FE
00
03
FE
02
01
02
03
04
00
03
FD
03
02
FE
FF
03
FF
FF
04
04
00
01
00
FD
FF
02
00
02
03
01
02
01
FC
01
02
02
FE
00
FF
00
05
FF
01
04
FE
00
02
03
FF
03
02
00
FE
02
00
03
05
02
FF
02
02
04
04
FD
02
03
02
02
04
02
04
FD
02
00
FF
03
05
01
00
01
FF
FE
03
FE
FE
01
00
FE
02
02
FC
FF
FC
02
FF
01
01
01
01
FF
02
04
00
FB
01
FD
04
FD
01
00
FC
00
FF
FD
FE
FE
02
FE
00
FF
00
00
01
02
FC
FC
FE
FC
FE
01
FB
03
FF
01
00
FF
00
FF
00
FE
00
02
FB
FE
01
02
03
01
FD
03
FF
03
00
05
FC
01
FE
FD
FF
01
02
02
FF
FE
FE
FE
FD
03
03
FF
02
FE
02
02
FF
00
FF
03
FF
FF
01
FE
FE
FF
02
01
FF
03
04
04
FF
00
FD
03
00
01
02
01
FE
FF
04
02
FF
FF
00
00
02
FC
02
03
01
04
02
FF
FE
FF
02
04
04
FD
02
01
03
02
FE
05
02
04
02
FF
01
FD
03
01
05
03
FF
FC
01
04
01
00
02
04
FB
00
FD
04
01
FE
02
01
FC
FF
FB
FD
FC
FE
FE
FF
F8
FD
FB
FB
03
FE
FD
FC
01
FD
FF
00
FE
00
04
00
FF
FB
FB
01
FE
FD
01
01
01
02
FF
FD
FE
04
00
00
FF
FD
FC
FF
FD
02
01
02
01
FC
01
FE
FC
01
00
03
00
03
02
00
FE
00
FF
FE
FF
FF
01
00
00
03
00
00
FD
FE
02
02
01
FD
FF
04
03
FD
00
03
00
FF
FB
FD
FA
04
01
FE
FF
02
FA
01
FE
02
04
03
03
02
FE
FD
01
00
FE
02
FF
FD
F9
01
01
FD
02
00
FA
FD
FF
00
00
00
00
03
03
01
02
FE
01
FC
03
FE
FD
FF
00
01
03
FD
FC
02
00
FE
03
FE
05
02
FC
FE
FE
FE
01
00
02
FD
03
FD
FC
03
00
FF
FE
02
01
02
03
FD
FE
FD
00
02
02
02
02
02
00
FF
02
04
01
03
00
FD
01
FC
FC
00
02
01
04
FF
FF
FF
01
03
FF
05
F8
00
FF
00
00
05
FE
03
01
03
FF
00
FF
02
FF
00
FC
FE
04
02
FF
02
01
01
00
FF
02
FD
04
03
01
FB
FE
05
02
01
01
FE
01
04
FF
03
FC
04
FD
FF
01
00
06
FF
02
01
01
FF
FE
05
03
FF
FF
00
01
02
03
07
03
02
00
FF
02
03
FC
FF
FF
03
04
02
FC
01
FE
00
FF
00
01
02
06
FF
01
01
01
00
04
02
FB
FE
FE
FD
FD
02
03
00
03
03
02
FA
FC
01
01
02
03
FC
00
00
02
02
FF
01
05
01
FE
00
00
04
FE
00
04
FE
05
FF
00
01
03
FE
00
00
02
00
FE
FE
03
FE
FF
04
03
FC
05
FB
FC
06
FE
00
FE
FE
03
FD
00
02
01
FF
04
00
06
01
01
03
02
FC
FE
01
FF
03
FD
FD
02
04
02
FF
01
03
FF
02
02
02
00
02
05
FE
FA
FE
02
03
FE
FE
FD
04
04
04
02
FC
03
FD
02
00
05
FE
02
01
FC
FF
02
02
02
FF
FC
FF
02
F9
FC
03
FB
FF
01
FD
02
06
05
FD
FC
00
FC
FC
00
FE
00
02
01
01
FE
01
01
06
03
FF
01
00
FD
02
00
01
00
FF
FA
FC
03
FF
FF
04
00
03
01
04
00
FF
01
FD
00
02
01
01
FD
FD
02
02
FE
01
FF
01
FE
FB
FF
01
FD
02
FF
00
FF
02
FD
FD
FD
00
02
03
02
02
02
FB
01
01
02
02
FE
03
04
04
FE
FE
04
03
FF
00
02
FE
00
FF
FF
03
00
00
03
00
FD
04
FF
03
04
01
03
03
FE
FF
02
FD
FE
FE
FF
04
02
02
01
01
04
05
03
FD
02
02
FE
00
02
03
FF
FE
03
00
01
03
FD
FF
04
FD
03
04
00
FE
FE
FD
FB
02
01
04
01
FE
01
04
02
F8
FE
FF
02
FE
FD
FF
04
FE
FD
00
02
FD
04
03
00
01
FE
FE
FE
00
FF
FD
02
FF
FE
FF
01
FF
00
02
01
FF
04
FF
FF
01
FE
03
FD
FE
03
03
04
01
05
04
01
FD
FE
FE
00
02
FF
02
02
04
01
00
02
04
00
01
01
FD
00
00
04
FF
02
FC
03
FD
00
FF
03
03
00
01
FD
01
FC
FF
FE
00
FF
FF
F9
02
02
FC
01
02
FF
F9
FE
03
FE
FD
FF
02
FF
02
FD
03
FB
FE
FD
FD
FD
FB
03
05
00
04
FD
FD
FA
FB
FD
FF
02
00
04
02
FC
00
FC
FE
FF
03
03
02
FB
FF
FD
02
FB
00
02
FD
01
FF
02
FF
FF
FC
01
00
00
FF
02
FE
FE
FF
00
04
05
01
00
03
FD
FE
FE
FE
03
01
03
FD
FE
01
FE
01
FE
01
00
01
FF
01
FC
00
01
FF
04
FE
02
02
03
04
01
03
FF
FD
03
01
FC
03
01
FD
04
00
FC
01
03
05
05
03
FF
F9
00
02
FD
00
04
02
FE
01
FB
FE
05
06
03
01
01
FE
03
02
03
03
03
00
FE
FD
FF
00
02
04
F9
04
FF
03
FF
01
FC
FF
00
03
FE
01
FD
01
FE
FC
02
02
FA
02
02
01
02
FE
FE
00
FE
FC
FD
FF
FF
00
FF
FE
FE
FE
FF
01
00
03
03
FC
01
FE
00
04
04
FF
01
FF
FE
01
03
FF
03
04
01
02
00
04
01
FE
FE
03
FC
00
FE
06
02
00
05
04
FE
04
FC
04
FE
04
02
03
FD
FF
04
01
FB
03
01
02
FE
FF
FD
04
FE
FF
FF
01
02
04
03
03
FD
FD
FA
03
01
FF
00
01
01
00
FD
03
00
FD
02
02
02
01
01
01
FC
FE
FE
02
01
FF
FD
02
FD
FB
03
00
00
00
02
03
01
01
01
FD
00
04
00
FF
02
01
04
00
01
FD
02
FD
FF
02
FD
FE
05
FE
FB
03
FE
FF
FF
01
03
03
FE
02
00
00
03
03
03
02
05
02
FE
03
00
FE
00
FF
01
04
00
00
01
00
FA
FE
00
03
FE
FE
02
FD
00
01
02
02
FF
FF
FF
FC
FE
00
01
FF
01
FE
00
FC
FB
FD
01
00
01
03
FF
00
01
00
FC
01
00
FB
04
03
FB
02
01
01
00
FE
00
FF
00
01
01
FD
00
FE
00
04
00
01
00
FE
03
03
05
05
00
FF
03
FE
08
06
03
02
04
FD
FF
FE
01
02
00
FF
01
02
FD
01
01
06
01
FE
02
03
02
FE
00
FE
FD
FF
03
00
FD
FF
00
04
01
FD
FD
FE
FD
FC
04
FE
01
FE
01
FE
FC
01
01
FF
FE
00
FC
01
FC
00
01
02
05
FF
05
02
00
FE
FF
03
01
FE
FD
FF
03
01
00
FE
00
03
02
FC
01
FB
FE
FF
02
03
FD
FD
FD
FF
03
00
FB
FE
01
FD
02
FC
00
01
FC
FB
02
00
04
03
FF
FF
01
FE
FC
FD
FD
FF
FE
FF
FF
03
FC
03
00
00
05
01
00
02
03
FC
00
FF
01
FF
05
FB
01
FF
01
FF
02
00
FF
FE
00
02
02
00
01
02
06
FF
FF
FE
00
FD
FF
FE
FC
03
02
FD
02
02
FE
01
03
FC
FF
FE
03
03
FC
00
FC
FE
FD
FE
00
03
03
FD
00
FD
FF
01
01
FD
FE
02
00
FF
01
00
01
04
01
02
00
00
00
FE
02
02
00
FF
FE
03
05
00
00
FE
06
02
04
00
02
03
FD
FD
00
FD
03
02
04
FF
02
04
02
02
01
FA
02
FD
01
FD
01
03
FA
01
FD
01
00
FC
04
FE
00
FC
03
03
FE
00
FC
04
FB
FC
FC
00
03
01
06
02
FE
00
03
03
04
FF
FF
FF
01
FD
01
FF
00
04
03
03
03
FF
FE
FF
00
00
FD
05
05
FF
04
FF
04
FF
00
04
03
00
01
03
FE
FF
00
04
02
00
00
00
03
FE
01
FE
FD
FD
03
FC
02
FB
FC
01
01
FC
FF
FF
02
06
FE
FD
02
FE
FF
02
03
01
FB
FD
FB
FA
03
FF
FD
03
FF
03
02
00
01
02
00
FF
FD
FB
03
FD
06
FF
FB
02
FC
FC
01
01
03
FE
FF
FC
FF
FC
04
FC
04
FF
FF
00
03
FB
FB
FB
FF
02
02
03
F9
FF
01
FB
FF
01
02
FF
04
FD
FB
FE
FE
01
04
FC
FF
03
06
FB
01
FD
01
FC
06
06
02
01
F9
00
02
01
FE
FE
00
FF
09
01
FC
FD
FC
04
02
00
FA
FD
FB
02
FE
03
07
07
07
FD
FE
FE
02
03
FB
03
FA
F8
00
FB
03
00
FD
FF
FE
FE
FC
02
03
FD
FC
FE
F8
FD
03
FE
FE
FB
FC
FC
FB
01
FC
00
01
F9
01
01
05
FF
02
FE
FF
04
FE
00
FE
FE
FF
03
04
FD
01
FE
FE
03
FE
02
FC
FF
03
FF
00
02
02
04
01
03
00
FE
FE
03
FD
FF
FF
00
01
01
01
FE
00
02
01
03
00
01
02
01
FD
FD
FF
FE
03
FF
FD
02
02
03
02
00
FD
03
00
01
02
FE
01
03
00
05
FC
00
01
00
FC
00
00
07
02
03
FD
FC
03
FF
01
01
06
FF
FD
01
01
00
FF
03
FE
FF
01
01
FD
FC
03
FE
02
FD
00
01
02
FE
FF
05
00
FF
FE
00
03
FF
01
01
FE
03
FE
02
FD
02
FF
FE
FE
02
02
FF
03
00
FF
02
00
04
01
02
00
03
FE
02
02
02
00
FE
FF
02
FC
FF
03
04
02
FB
FE
01
07
05
03
04
03
02
02
FD
04
FE
01
02
04
02
FE
FE
02
03
FF
FE
07
00
04
FD
01
05
01
04
02
05
06
01
FF
00
00
04
FD
01
02
00
03
FE
02
04
05
03
00
05
00
FF
FF
01
00
01
01
FD
FD
FE
01
FF
03
00
FF
00
FE
FF
FF
02
FF
04
03
00
FE
03
04
04
03
FD
04
FE
02
FD
FB
05
00
FE
FE
00
05
00
05
03
FC
FE
01
00
00
04
FE
FF
FE
04
FC
01
00
00
08
01
01
FD
00
00
00
FF
01
03
FF
01
FC
FF
FE
03
03
03
03
FE
00
FF
FE
00
03
FE
FF
FF
FE
FE
FB
00
FE
00
03
FE
01
02
FE
02
03
04
FE
FD
FC
FC
02
03
02
00
02
03
00
FE
03
FF
FE
00
FF
FF
02
00
FE
FC
FC
FF
01
FE
F7
FE
04
FF
00
FE
00
FE
03
05
05
04
FD
FF
00
FD
FB
FD
02
05
01
02
FB
02
FD
FF
01
00
00
FF
02
FE
FE
FF
01
FF
02
03
02
01
FD
00
FE
FC
00
FD
03
01
01
FD
FF
FF
02
03
FE
FF
FD
FF
FD
FF
02
FF
02
01
03
00
FF
FF
02
FE
FD
03
02
01
FF
05
FD
FC
02
09
FC
02
00
00
04
02
FE
03
03
00
FF
01
FD
FE
FE
04
01
FC
01
01
04
03
05
00
02
01
FE
FE
FF
FF
02
05
FC
FE
00
FF
00
01
03
FF
FF
FE
FB
02
00
00
FE
01
03
FF
03
FF
FE
00
FC
02
FC
03
00
01
02
FE
FF
FE
02
FE
FD
00
02
FE
FE
01
FF
FF
FD
05
FD
FF
03
06
FD
04
00
FE
00
FC
01
03
FF
01
02
FF
00
FF
03
07
FC
FE
FE
FD
00
FB
03
FE
05
07
FF
01
FA
00
01
04
FD
02
01
FE
FE
FF
FD
02
FD
FC
04
03
01
FE
FC
00
03
03
03
FC
FD
02
FD
02
03
FF
01
01
FF
03
FE
FF
08
FD
FE
01
05
FF
FF
00
02
06
FD
02
01
02
03
FB
04
00
FE
FD
02
01
FF
FF
02
01
01
FE
FB
00
02
01
05
02
FB
FD
FF
01
FF
00
01
02
01
FF
