01
00
01
01
00
00
00
00
00
00
00
00
00
00
01
01
00
00
00
00
00
01
FF
01
00
01
00
00
01
00
00
00
01
01
00
00
00
00
01
00
01
01
01
00
00
01
FF
00
01
00
00
FF
01
00
00
01
FF
01
00
00
01
00
00
00
00
00
01
01
00
01
02
01
00
00
FF
FF
01
FF
00
01
01
01
00
00
