FB
FB
03
FC
02
FE
07
FE
FC
03
02
00
08
06
05
FE
FC
FC
03
05
05
03
06
02
FB
F9
F9
FA
02
04
FC
FF
01
FD
04
FC
FD
FF
FB
FB
FB
FC
F9
00
03
05
FF
FF
FE
FC
00
FF
FE
FF
02
04
05
05
01
06
FF
FD
FD
01
01
F9
FD
04
03
FE
01
FD
04
05
FD
FD
FB
0A
01
FF
00
FF
FA
02
01
FF
FD
00
06
00
05
FB
FD
01
06
FD
04
01
FE
FB
FC
FE
03
04
FB
03
01
FF
04
02
05
FD
FF
05
FC
04
04
FF
FC
00
FD
FB
FB
01
FF
FF
02
FC
04
FF
03
FD
03
02
02
FC
FB
03
03
F9
04
FD
04
04
00
FF
FF
01
FD
06
FD
04
03
FC
06
01
FA
FD
06
03
00
FE
08
01
FB
04
03
FF
03
00
FF
04
FB
05
FE
01
01
FC
FF
FC
01
FD
05
FC
02
05
FF
FB
FD
FD
FF
02
01
00
04
01
FC
05
FF
01
FD
05
FB
00
FC
03
F9
FB
01
06
03
FE
FE
02
FB
FD
01
04
FE
FC
00
FC
FB
FB
01
F9
FC
FA
FB
06
01
FA
04
02
FD
01
05
FA
FC
06
03
FB
FD
01
FB
FE
03
01
02
08
07
FD
02
06
FE
07
FB
FC
FE
06
01
05
01
03
01
FF
FD
00
04
FF
00
FF
00
01
00
03
01
02
03
FF
FF
01
01
FC
01
03
04
FE
05
FB
FE
FE
02
03
03
F9
FF
04
FF
FD
FC
FF
FF
00
FE
FD
05
FD
03
07
FF
03
FF
05
FD
00
FF
00
06
FD
00
FD
FA
05
FB
04
FB
FF
00
04
FD
FC
06
FD
FC
FE
01
00
02
FF
05
FE
FB
FE
FC
FF
05
02
FB
FA
FD
03
05
03
01
02
02
FB
FF
01
FF
FF
FC
06
06
04
06
03
FE
FB
06
FF
FA
03
FD
FA
FB
F8
FD
FE
FC
FD
00
03
05
00
FB
FE
08
FE
FF
FA
06
FE
02
01
00
FC
02
02
01
FB
F3
FB
FD
FF
04
FC
02
05
04
FE
FE
FE
05
03
04
01
FE
FC
FE
FD
FF
FE
03
FE
00
02
FE
03
FD
F7
FF
03
FD
05
02
FA
04
FF
02
FC
03
FD
06
01
FF
03
03
03
02
03
FB
02
FC
FC
FD
06
03
FE
02
00
FC
FF
00
04
FD
03
FE
FF
05
02
FC
FD
FE
05
01
03
FC
FC
03
04
FD
03
02
FE
FE
03
FE
02
FC
FB
FC
FE
FB
00
00
FA
FF
02
03
FE
04
00
FC
04
FD
06
00
FE
FD
01
03
FD
02
FF
FD
FE
03
02
00
FD
07
01
FE
FB
FB
FD
FE
FF
00
06
02
FE
FC
03
FF
FD
06
FB
FC
05
FE
01
FB
01
03
FF
05
FF
05
FA
FC
01
00
00
05
F8
05
05
FD
FE
04
FB
06
FF
03
FD
02
05
03
04
03
01
00
05
FE
07
FF
FE
FD
FF
04
FE
05
FE
04
00
02
01
01
FA
FC
FA
FD
03
02
01
02
06
01
FC
FE
FD
01
FF
01
01
FE
00
FA
FE
FB
FF
03
FE
FB
FE
FD
FC
FD
02
FD
FC
FD
F9
01
00
FD
FE
05
FC
FD
02
04
F7
FE
04
06
03
05
FE
FD
FE
06
06
01
FA
08
FF
FF
05
05
05
05
05
FA
FE
00
01
FA
FF
01
06
04
05
03
FE
FD
00
01
02
FB
03
FF
00
05
05
00
02
05
03
01
FC
FE
FF
FD
FB
04
03
02
FF
02
05
02
04
04
FF
04
03
00
07
FD
01
02
02
06
FD
FA
03
00
FE
04
02
03
FE
FF
06
02
03
FF
FE
03
FB
FC
05
FE
02
01
05
FF
05
04
FE
FC
00
FF
FE
FE
01
00
01
FE
FC
02
02
04
FC
06
03
04
FF
FE
FF
FE
03
03
03
FD
FD
FF
FC
03
01
02
07
FC
00
FD
04
FF
FD
00
05
FD
FB
FF
FB
FF
FC
00
FB
FF
FE
FC
FA
02
01
06
03
02
FB
FE
03
FF
01
FE
FD
00
04
02
05
02
04
FE
FD
03
00
FF
01
02
FA
FF
01
FE
06
FE
05
04
FD
01
FF
FF
00
06
04
06
F9
FB
00
00
FB
01
00
FE
01
03
03
00
05
FE
00
05
05
FC
04
FF
FD
04
07
FF
F8
FC
06
04
06
FC
04
FE
00
05
FB
01
FE
05
03
FF
04
03
03
FE
00
FF
01
05
FF
00
02
FF
FF
03
01
04
01
FF
03
FD
02
01
04
FE
05
FB
FE
00
FB
03
FE
03
FC
F8
05
02
02
FF
FF
FE
02
00
F8
03
04
05
02
03
01
00
03
FD
00
02
00
02
FD
FB
FC
FC
01
03
06
FB
03
05
06
01
01
FE
00
FF
FE
FC
01
FD
03
05
00
FE
FD
FE
07
01
00
FC
FF
05
01
02
00
FD
FE
02
07
FF
FC
04
FD
FA
05
03
FE
04
01
03
03
FE
FD
FF
06
05
01
03
05
FB
07
01
05
05
01
02
04
01
04
FE
06
04
05
05
FD
02
02
FE
FD
01
03
03
FC
FD
FD
02
FF
05
FC
FC
FD
01
02
FC
FC
02
02
08
FE
05
FF
FB
FE
01
03
02
00
FD
02
FA
03
03
06
04
FB
00
FA
FB
04
00
FE
FE
02
03
00
FB
FE
00
05
04
05
FA
05
FD
FD
FD
00
FD
FF
00
FE
00
06
FF
06
08
03
01
FF
FE
00
02
01
FE
03
06
FE
FE
FC
FD
FA
02
03
01
FC
F7
04
FF
FE
FD
00
00
FF
00
FE
03
FE
FB
F9
00
F9
04
FA
FB
01
00
03
00
F9
FD
FE
F6
F8
00
04
FD
03
02
FE
FF
03
FE
02
FD
FF
FE
FA
04
04
FF
01
FE
05
FA
03
03
03
FB
02
03
FF
02
FC
F8
FC
FD
FE
05
04
00
F9
FF
F9
FE
FB
01
FF
FC
00
01
FB
FD
00
FA
04
FC
04
05
FE
03
03
02
04
FD
03
00
05
01
07
05
FC
07
05
FF
01
03
FC
00
FB
01
FE
05
FD
00
01
02
02
01
00
06
03
04
06
02
FC
FA
00
FA
01
F9
FD
F9
03
FB
FA
FD
04
06
FB
03
FE
FC
FB
01
02
04
FC
FE
FE
02
04
FC
FA
FE
01
01
03
FD
05
05
07
00
FE
02
02
FA
FC
FE
FD
06
04
07
01
02
00
00
03
F9
FF
02
FD
05
03
00
01
FE
04
FD
FE
06
FF
04
FF
FB
02
05
05
FF
03
FE
FF
01
00
02
FF
FE
FC
FE
04
FC
06
FB
05
FC
FF
05
04
FC
FA
01
FA
03
FD
FF
00
02
03
FB
01
FD
00
FC
05
FC
02
FE
06
FF
FE
02
02
FC
02
06
05
05
02
05
FF
FE
00
04
FD
03
01
FF
03
06
FE
02
FD
04
02
FF
FE
03
02
00
FE
FB
02
01
02
02
05
00
FC
05
05
FA
FA
FF
05
04
05
FD
04
FD
01
FA
03
FA
FB
02
00
02
05
FB
05
06
FF
02
FB
FC
01
FD
FC
FB
01
06
00
05
06
FD
03
01
06
FB
01
FE
01
FC
00
FC
FB
01
01
05
FD
03
04
01
FC
05
FE
07
01
FB
04
FF
FF
02
02
03
01
04
FF
03
FE
FB
FD
06
00
03
FB
05
02
00
07
01
03
FD
01
FF
04
05
00
FE
FF
FA
FC
FF
FB
02
04
06
01
03
FF
FC
FE
02
FE
FE
FF
FE
FE
03
FF
FE
04
05
FC
FC
FE
06
FC
05
01
F9
03
FC
06
00
03
07
04
01
FC
FF
FD
02
06
04
FF
FC
04
03
06
F6
00
04
06
02
FF
02
01
FD
01
FC
FD
05
03
FE
00
00
01
FC
FB
01
FC
FE
03
01
FC
06
01
01
FF
05
FC
FB
FD
FC
05
FD
FA
FE
FF
01
FC
FB
05
01
05
00
FE
FD
FE
FC
07
04
03
FD
FF
06
FF
FB
06
04
FD
FB
05
FB
02
FD
07
F9
00
03
01
00
04
02
03
00
00
02
02
FA
07
00
01
03
FD
F9
FF
FC
02
FE
01
02
02
06
04
05
04
00
05
03
05
02
FF
02
03
03
FC
00
FC
FC
FC
05
02
03
00
FC
FD
01
03
0A
FB
FA
05
02
FC
FB
F9
FC
06
FE
FC
02
01
02
FD
01
FB
01
FC
FC
FD
F9
FD
FE
05
03
FB
FC
05
FF
05
02
FF
03
02
FA
FE
FF
03
FD
FA
01
04
03
00
04
03
05
03
03
02
04
03
07
07
05
FF
F9
02
03
01
01
FA
03
05
04
FE
07
01
07
04
00
06
00
00
FF
06
FE
07
01
04
FE
09
FF
FE
07
FD
00
07
00
FD
01
02
FC
FC
02
05
06
05
F6
02
FF
07
FF
FD
07
FE
06
FE
FE
FB
04
FB
05
01
02
FB
00
01
F5
02
03
FC
00
05
02
05
00
03
02
02
02
FF
03
FE
02
06
FE
02
FC
FB
02
03
FD
00
02
05
01
FB
02
FF
05
05
02
06
03
FF
FD
02
FE
FB
FC
FE
09
FD
FC
FB
02
05
02
07
00
05
FE
FE
FE
FA
FF
FE
FE
07
FD
06
FA
05
03
04
05
07
05
FC
02
FF
03
04
FF
04
03
05
FC
FF
03
02
FD
03
04
FC
FB
05
03
FC
05
06
05
01
04
FD
03
FE
FF
04
05
FF
02
FD
03
03
04
04
FB
00
FE
FE
04
FA
FD
FD
08
FE
FE
FB
FD
01
03
FF
06
00
00
FA
00
06
04
02
01
02
01
04
01
FC
00
FD
FE
FE
03
02
01
FE
01
FB
05
05
FB
FB
F9
04
FD
FC
FE
00
FC
FE
FD
01
04
FC
FD
00
FB
00
FF
05
FB
01
04
F9
F9
F9
04
03
05
FE
FB
FE
F9
04
01
FF
FC
02
FC
FD
01
01
FC
FF
FF
01
04
00
02
FF
FD
04
01
02
FD
FC
FB
00
FC
FF
FA
FD
FD
FB
FD
02
04
FB
04
FE
02
03
05
03
FA
FA
01
04
FB
FF
FD
FD
FF
02
01
FE
03
FD
FD
02
FC
01
FA
02
01
FA
FD
FE
04
FA
FB
00
03
FD
03
00
03
FB
FE
04
FE
FC
04
FC
04
FE
05
FC
00
FD
00
00
02
FC
FB
00
FF
00
03
05
02
FA
FE
FD
FB
FC
FD
02
FF
01
FD
FC
00
FA
02
01
03
04
05
04
FE
FE
FC
07
04
FD
02
00
03
01
03
FE
FD
06
FB
FB
00
01
04
06
FF
00
FC
FF
02
FC
02
FC
FE
03
05
00
F9
FD
02
04
FC
FE
04
05
01
FF
FE
04
FB
FF
FF
02
02
FB
FB
03
FC
FF
FB
03
05
FE
FA
01
04
FD
00
03
02
03
FD
05
00
01
01
00
01
03
02
FE
FD
00
FB
FB
FC
02
FD
01
02
FF
01
FC
03
04
02
02
00
FC
04
FF
02
06
FD
FF
05
FF
FF
03
06
FF
FE
01
01
06
FC
04
03
04
FD
FC
FB
FB
05
06
04
FC
FD
FD
FC
02
FF
03
FE
FA
FD
FF
03
02
FE
06
03
FD
01
04
01
01
00
04
FC
04
04
02
04
FA
00
04
FA
FE
FF
FC
04
02
F9
01
FF
01
FB
03
02
05
03
FB
04
01
01
02
FF
FB
01
FB
06
05
FD
F9
03
FD
03
05
05
05
FF
FB
FD
FE
05
05
FF
F8
05
01
FF
01
FF
FE
FE
FD
01
FE
FE
06
FA
00
FD
FD
06
FD
00
05
FF
05
04
F7
06
06
FD
FA
04
01
FC
FD
00
04
FD
FB
FE
02
02
03
FE
FA
04
03
03
FD
FA
02
FD
FE
FD
FD
01
FD
05
FF
02
FD
04
01
03
02
FC
00
04
01
01
03
04
FA
FD
FE
02
FD
FC
05
FE
08
01
FB
04
FA
02
FD
07
FE
05
06
06
03
FF
FF
02
00
02
00
00
FB
03
FC
03
FF
02
FC
FF
01
FD
02
02
02
03
02
03
05
FF
02
06
00
00
02
FD
04
FE
FF
01
00
01
FC
00
FF
00
F7
FC
00
04
FD
01
FD
03
00
FE
FF
FE
FD
FC
FE
04
01
03
02
06
01
FF
FF
02
01
00
FD
05
05
03
FC
F9
FC
FE
FB
FD
00
01
FF
FF
00
FD
F9
04
05
FC
03
FF
05
FB
FF
FD
FD
05
00
03
FD
04
F8
02
05
FE
FF
FE
02
02
FB
02
05
00
03
04
FE
03
FD
FF
06
FF
FB
FE
00
00
FE
FF
00
00
FC
03
00
02
04
00
02
FA
FF
00
02
02
FB
04
05
05
F9
04
01
FF
05
FE
08
01
02
02
04
01
FB
FB
02
FB
FF
04
FC
FF
FD
FE
FF
04
00
FE
FD
03
FF
00
08
FF
FD
FC
FC
FA
FD
FE
05
04
FD
FB
07
FB
FD
FA
FE
00
FD
FB
FB
04
FB
02
FE
03
FD
01
08
FE
02
08
04
FA
02
06
02
03
FC
02
06
06
02
01
04
00
FE
FE
FE
FD
05
FA
FD
05
FE
05
FF
FE
03
03
03
FD
FF
FD
02
FC
FF
06
FD
FC
05
01
01
07
02
FF
01
01
FC
FE
00
00
02
FD
07
04
01
FD
00
FF
04
FC
FF
FD
07
03
FB
02
FD
FD
04
00
05
FF
FC
FB
04
06
FB
00
01
00
01
F9
FD
FA
06
00
05
05
FA
00
03
00
FF
02
FE
02
03
06
F8
03
00
FF
FD
05
FA
FC
06
FA
FD
02
01
02
00
02
00
FE
FE
05
FF
04
04
FC
FF
02
03
FC
FE
FF
02
FD
FC
04
00
FF
FD
FB
FD
02
03
FC
FD
02
FF
FD
FE
FC
02
01
FA
FF
05
02
FC
FE
04
02
01
04
FF
05
01
02
04
FE
FE
FE
04
04
FB
03
04
FD
04
FF
FE
00
FF
05
FB
03
03
FF
FB
04
03
FA
FF
FF
00
FE
FD
02
01
FD
FF
FA
FA
03
FE
FC
FC
01
04
02
FB
FD
FB
01
FC
04
FC
FF
03
FF
FD
00
03
FE
FB
03
02
FF
00
03
01
FC
FC
06
FC
00
02
FD
FC
FC
03
05
05
01
F9
05
FD
01
FF
03
04
05
FE
FF
06
08
FB
FD
FD
02
07
01
03
00
01
FD
FE
04
01
08
01
FD
FF
FD
04
02
FA
04
05
FD
04
FD
06
FC
02
00
FE
FB
FD
01
FC
03
02
F5
05
00
02
06
04
FF
00
02
04
00
03
FD
05
FC
06
FC
FF
FC
FB
00
06
05
00
07
02
FD
01
00
FD
06
00
01
04
01
FE
02
06
00
03
02
05
FF
01
FE
FE
FD
FB
FC
06
FE
FD
FF
02
03
FF
FC
FC
00
05
00
01
02
04
FE
FE
01
00
01
FD
04
FC
F9
03
FD
FF
01
F9
03
01
FA
04
05
00
01
01
FD
04
FE
03
02
07
02
FB
FE
FD
FE
02
06
04
FE
04
04
FF
FD
FD
01
06
FF
04
FD
03
FE
00
03
00
FB
FE
FB
FD
FC
05
FD
05
04
01
05
01
FD
FA
03
FC
FA
02
FD
01
FF
00
01
02
FC
00
00
FE
FF
05
06
FF
03
FC
00
03
03
FC
04
FB
01
05
02
FE
FA
02
FF
02
FA
05
FD
FB
FC
01
02
FE
FB
04
FB
FD
04
00
04
00
07
FB
05
03
06
FD
FF
03
01
00
03
02
FB
00
FF
03
FD
FD
03
00
FB
04
FF
FC
FC
00
FD
00
04
FA
04
03
05
08
00
02
FE
02
00
FE
FF
00
00
02
01
FB
FF
06
01
01
04
04
03
FF
FD
01
04
02
FE
FE
07
03
01
FF
FF
02
FF
04
02
02
FF
00
05
FB
06
FC
03
FB
FD
00
04
FF
04
03
FE
03
02
05
00
FD
00
FD
01
FE
00
FD
02
FF
04
02
FE
FB
04
05
FE
01
01
FB
FB
FC
00
01
FF
FE
04
FF
01
FD
00
FA
00
00
00
FA
01
FE
FC
04
FF
FF
04
01
03
FA
02
FB
06
FC
FC
01
03
02
02
01
00
FF
F8
F9
FF
05
00
FC
04
01
FB
00
05
FF
FF
FC
FF
02
F8
FB
02
FE
FD
FF
03
FD
FE
00
FB
FD
FA
FB
06
04
02
FE
01
01
FF
FF
01
FA
00
F9
FB
05
00
06
03
04
FC
FD
08
02
FC
04
FC
05
04
FF
03
FD
FA
05
FD
F9
00
FF
00
00
00
02
07
FD
FD
07
03
01
FD
01
05
05
00
FC
01
F7
FF
01
03
02
05
04
01
FD
05
01
FD
FC
FD
03
FC
00
FF
05
FD
01
05
04
04
FE
FB
03
FB
FC
FB
06
FF
FF
00
FC
FB
06
02
00
02
06
FD
04
06
02
FE
00
05
03
01
FD
06
05
02
FB
FD
FC
01
05
05
03
FB
FF
FE
05
00
01
FB
FE
FC
FD
FB
FD
FC
02
FC
06
FF
FB
FF
FC
05
03
FE
FA
FF
FB
01
FF
FF
02
FE
FF
FF
FF
FC
04
01
FB
04
04
FC
00
03
04
FC
FB
07
02
06
FC
03
FE
FB
FD
FF
02
FC
FC
FC
02
FB
FD
05
04
FF
00
01
FA
00
FA
FF
04
FF
FE
FE
FE
FD
FE
FF
01
04
06
04
00
00
05
05
00
01
03
05
FE
FE
FD
FB
00
06
01
00
FA
FE
02
FB
FC
FF
FD
02
06
04
FC
FF
06
00
05
06
01
FC
FE
00
FD
05
FB
FD
01
04
05
FD
07
F9
FE
07
F9
00
02
00
FC
FC
01
04
00
01
FF
01
FE
02
FC
FE
FF
FF
FF
FD
FE
00
FD
FE
00
FE
03
05
FB
01
FD
FE
03
04
01
02
01
FE
04
04
04
FE
FD
07
FD
FA
FC
06
07
04
FD
03
05
05
FC
00
00
FC
06
00
00
03
05
03
02
00
02
FA
03
FD
04
FF
03
02
FC
00
02
03
FE
FC
FE
03
04
FC
FD
FB
01
FA
FC
00
05
00
FD
FD
F7
FA
01
01
FF
FB
FE
FD
02
07
04
03
FF
06
FE
FE
FC
FE
FC
00
04
02
07
FE
03
FE
05
FD
01
FD
00
04
FF
04
02
FB
05
03
FB
04
01
FC
03
02
02
FC
FE
FE
00
FD
FF
03
02
00
FE
FD
FD
FF
05
FB
04
00
04
FD
FC
02
FE
00
01
FD
03
00
06
02
01
FB
04
04
FC
FC
03
FD
00
02
03
FC
FF
00
FF
04
01
FA
01
00
03
FC
FF
06
01
FC
01
FC
03
06
FE
FF
FE
FD
04
FB
02
FE
01
FE
01
03
FC
00
F9
FC
02
FE
FC
04
FC
03
04
FB
FE
02
FB
03
00
FD
01
04
FF
04
04
FA
02
FB
FE
01
FE
FC
01
01
00
FB
03
04
04
04
03
01
01
FD
FB
F9
FF
02
FF
FC
00
FB
01
FC
05
FB
01
FC
FC
00
01
FD
00
FD
06
FA
04
FC
01
FE
FC
01
05
FC
00
05
01
FD
04
05
05
03
FC
03
04
FE
02
FB
FF
FC
01
06
03
02
01
06
FB
04
00
00
FE
02
FD
03
00
FD
FA
FC
07
03
03
FE
04
06
FA
FF
FE
F8
FE
FB
02
05
03
FF
06
FE
FF
00
FE
01
04
FD
07
FA
03
00
05
00
FD
03
FB
FD
FE
02
FD
F5
03
01
FC
05
04
F9
06
FB
01
FF
FA
03
00
00
05
05
FF
03
FC
06
FF
05
FF
04
00
FE
FD
FE
FF
FC
FF
FE
FE
00
FE
FE
FC
02
03
FE
04
04
04
05
FD
FD
01
02
FF
04
05
07
02
FA
00
FB
FF
FE
FF
01
05
06
06
FE
00
FF
FB
FF
FC
01
FF
01
FC
F8
FB
FF
07
FE
00
FF
FD
05
FC
FA
01
FB
03
FF
00
FA
FD
01
00
05
FF
FC
FE
FE
05
FE
02
00
01
02
02
FC
06
03
05
02
FF
03
05
02
01
FA
01
FC
FD
FE
FE
FF
FF
FD
01
06
FF
FD
FF
FD
FE
FD
FC
00
09
FF
FD
05
05
04
04
03
01
05
FF
FB
FB
04
03
06
FF
03
01
05
FE
04
FE
01
FD
03
04
FB
FE
03
03
03
F6
05
04
FD
FF
FA
FC
01
00
02
FE
03
FB
FF
05
02
05
03
FB
FE
FE
01
00
03
FD
06
01
F8
06
00
01
08
FD
FD
FE
FD
00
02
01
FB
03
04
FF
03
FC
05
FC
FE
FA
FF
03
00
FD
FA
FF
06
03
02
FE
00
02
FA
FC
07
FF
FB
FF
05
FD
FF
00
FE
FC
FE
03
FF
01
FB
03
08
04
00
FF
02
FA
04
02
FC
06
04
01
02
04
FA
FB
FD
00
04
FB
FD
03
FD
FB
03
FC
F9
04
FE
FC
00
FB
FD
03
04
01
01
01
FF
02
FF
F7
03
FD
03
04
01
03
00
00
FD
04
02
FF
05
01
00
00
00
03
FA
FF
05
FD
05
00
FE
02
01
FC
04
FB
FB
04
FD
FF
00
00
FC
00
FB
03
FE
03
03
03
04
FC
FE
FF
FC
FF
FB
FF
03
02
FB
00
FF
01
00
FF
00
00
04
FA
05
00
03
FA
00
FC
FB
04
FC
FE
FF
FD
03
03
02
FD
FF
FD
FD
FE
FB
04
FD
FC
03
03
03
FB
FF
FC
FF
04
03
04
03
FF
FD
FD
FD
00
01
00
FB
03
FD
FF
FB
02
FC
FB
FB
FF
FB
03
04
FD
00
FB
FD
02
FD
04
FC
03
FB
FF
FB
01
04
00
FD
FB
FF
FC
02
03
01
03
04
FA
01
05
09
04
04
FD
03
04
03
05
03
FE
03
01
05
00
FD
05
FF
FD
00
02
04
03
06
FF
FA
01
FF
06
FF
FB
05
FB
FF
04
FB
FF
FA
00
01
01
FA
00
04
FB
02
FF
F8
FD
FA
FE
01
01
F9
06
F8
FD
FF
FC
FF
FF
FE
FB
02
02
FD
02
03
00
FF
02
FB
FD
FC
05
03
02
04
00
02
03
03
05
02
FD
01
01
04
00
FE
FB
FE
FF
FD
08
02
07
FC
03
01
FA
FC
FB
04
00
FF
FB
04
FF
02
FF
05
01
FD
FD
FC
01
FF
FC
FD
FE
FB
FF
04
FF
00
03
FB
05
01
00
00
FF
03
FB
FB
00
FD
00
04
FF
01
00
FE
FB
FF
05
00
02
02
01
FD
01
FD
FF
FC
FC
FD
04
05
02
00
FF
02
00
00
01
FB
FF
FA
F9
02
FB
04
FD
03
03
FF
03
03
FC
04
FA
FB
04
01
FB
01
FA
FA
03
FE
01
FF
FA
FE
02
00
05
02
FB
FB
04
00
FF
00
02
FC
01
FF
04
F9
03
FE
01
FC
03
01
FB
FB
FF
FD
FB
FB
FC
FF
02
FA
00
FD
03
02
05
FC
FF
00
02
05
FF
03
FF
01
03
FE
00
FF
FD
02
FF
02
00
01
06
04
05
04
FD
02
FF
FD
FA
FA
04
00
03
05
FC
03
FB
05
02
07
FF
FC
FC
FE
FB
FC
03
01
FE
04
FD
FD
00
FE
00
00
FC
FD
04
06
08
FB
02
FF
FC
05
06
02
FC
03
F8
FE
08
F9
00
04
02
02
01
04
FD
02
03
00
FB
FB
02
01
01
FF
F9
02
FF
00
02
FD
00
04
05
01
01
FD
09
01
FF
04
07
05
02
03
FD
03
02
04
04
06
FA
01
FD
06
FE
FF
FF
FA
03
FF
FA
02
FD
05
03
FF
F9
01
03
02
02
FD
02
00
06
02
02
F9
04
01
07
FD
03
08
03
01
FC
FC
00
03
04
FE
F8
FE
05
01
00
02
04
FE
00
00
01
FB
05
04
06
00
FE
00
07
05
02
04
FB
FC
05
09
02
02
03
FF
FB
FF
FB
FC
01
FB
06
05
05
04
FB
01
FE
01
00
FD
FD
05
02
03
02
FD
FA
03
00
05
01
01
FD
FC
FC
03
FC
FD
05
FB
06
01
07
FC
FD
00
00
04
02
FE
FA
03
FF
03
FF
00
FB
00
01
01
FB
03
FD
FE
06
02
FD
FC
04
09
04
05
FD
03
07
FD
00
02
03
FB
02
FD
04
FA
FC
06
04
FE
FF
00
03
FF
05
05
FE
01
01
04
02
02
FD
FF
00
05
02
05
FC
01
01
FF
03
FA
FB
04
04
FD
06
05
01
00
03
05
FC
FB
FB
04
04
05
06
05
FC
FD
04
00
06
01
00
00
FB
04
02
FE
FE
04
02
FF
FC
00
F9
06
00
04
FF
05
01
01
03
FD
07
03
04
02
05
00
07
F9
F8
05
06
FB
05
FF
02
FD
FF
02
05
06
01
00
03
06
02
04
FC
00
FC
00
FD
F7
00
FC
01
05
07
FF
FE
FF
FB
04
04
02
01
05
04
FF
01
01
FD
03
04
07
07
00
02
FA
05
03
00
05
09
01
00
04
FE
FF
00
FF
FB
01
FE
02
FF
02
FF
FC
00
0A
02
03
FC
02
01
04
01
01
07
FC
FA
05
04
05
FB
02
FC
FD
02
05
FC
00
02
02
FB
06
FD
05
02
FF
03
FC
FB
FE
03
FA
05
01
FE
01
01
00
FF
FC
FE
FF
02
F8
FE
01
03
00
03
03
04
01
00
04
FB
FF
06
04
08
04
FD
FE
05
FA
04
FE
00
FC
04
FA
FE
01
FB
01
01
02
07
05
06
FE
01
FF
00
FD
FF
04
FE
03
FB
01
05
04
05
03
FF
03
07
FE
01
01
FB
05
FE
FF
FD
06
FF
FF
FE
04
01
FF
00
FA
FE
00
FE
02
04
01
FE
FF
07
FF
03
04
FE
FF
FE
FE
00
FF
05
04
FC
FF
01
05
03
FD
02
06
06
04
06
04
01
FD
FF
02
01
FC
02
00
FE
04
FF
02
04
FB
FB
01
00
04
06
00
00
FD
FD
00
FF
FD
FF
FB
05
00
06
FE
FB
04
FB
FC
FE
02
F9
FE
FD
04
03
FD
FB
04
04
04
FE
04
FC
FB
00
FE
FE
FB
FC
FB
FF
04
FB
00
02
02
FD
00
FE
03
05
04
00
08
FF
01
FD
FB
04
FB
FF
FE
04
06
FC
04
FE
03
07
02
00
F9
05
01
00
FF
FE
FD
FA
02
02
04
05
05
04
FD
06
FD
01
FF
04
FF
01
02
01
FE
FE
02
03
01
00
FC
04
FE
FC
F9
FE
FA
03
00
02
FC
02
02
FC
FE
03
FB
03
02
05
02
FC
00
FF
01
04
01
05
00
FF
FC
03
05
FE
FC
FD
02
00
F6
06
01
FE
FB
FA
FB
01
05
F9
03
FB
06
FC
FC
FA
FC
FE
FA
00
00
00
FC
01
05
FA
FE
FE
05
FF
FB
03
02
FB
00
04
FD
FB
FF
01
FE
06
04
FC
FE
02
00
FE
02
FE
05
FE
04
FE
08
F9
FF
00
FC
05
F7
FB
01
FB
FA
FA
02
FF
FF
FD
02
FF
FF
FC
04
05
FE
04
06
04
03
FD
FC
05
FE
00
00
02
00
02
FF
FD
F9
06
FC
FD
07
00
FC
FB
04
FC
02
FA
01
FE
FE
00
01
01
01
FF
FE
04
00
04
01
FF
FE
06
06
04
F8
FC
FB
FE
05
03
02
01
00
05
FB
FF
FB
05
01
FB
04
02
FD
FD
05
05
05
FE
FC
FE
FF
02
06
07
FE
02
01
FF
FE
00
FF
FE
FD
FD
FC
01
01
FC
00
FF
FC
00
04
04
FE
FC
FC
FF
00
FF
FC
02
03
FB
02
04
FC
04
02
02
FE
FF
06
03
FF
FD
FE
FF
F8
FE
06
04
02
04
FC
FA
02
04
05
FD
FE
FB
00
FC
01
04
04
05
01
00
FD
FE
08
06
FD
FE
FE
FB
03
FD
06
FF
03
06
03
03
FD
02
04
04
00
00
03
01
00
05
08
FF
03
02
FE
FF
03
04
FB
01
00
00
05
06
01
03
01
FF
04
03
00
FE
06
FF
FC
FE
FE
FF
FE
FB
F7
03
FA
FF
FF
04
03
05
FF
FB
04
FD
FC
06
FD
FE
FB
FF
05
FC
FA
01
FD
FE
06
00
FF
01
05
FD
00
05
FB
FF
FE
FC
05
FB
FE
05
04
FD
04
FD
FB
FD
03
04
01
01
FE
01
02
FB
FF
03
FB
02
FE
FD
05
00
FE
02
05
FF
04
FD
FF
04
FB
08
03
04
07
01
04
00
04
03
FA
FE
02
02
02
FF
FF
00
FB
02
02
FD
05
FE
F9
04
FE
FE
FD
01
FB
01
06
00
02
00
04
02
FE
03
04
FD
FD
00
FD
FC
00
06
05
04
FD
FD
FC
05
FC
04
03
03
04
04
FE
FF
00
FD
FC
04
FB
FC
F4
00
FE
05
00
04
06
04
FA
FB
05
04
FA
01
FD
05
01
01
FB
FE
FF
05
FD
02
03
FA
04
FC
FE
01
FE
03
04
FF
01
03
FE
05
05
01
FF
08
01
FF
FC
05
03
FD
01
FD
02
FE
FF
03
00
00
FF
04
03
03
FE
00
03
00
FC
FC
FF
FE
01
00
FD
FA
06
05
FB
FF
05
FA
FE
FC
07
FF
06
04
FC
FF
FB
02
FC
06
03
01
FA
F9
FD
FE
03
FA
02
00
04
FE
F7
00
FE
FC
02
04
05
FF
FC
FC
FC
FC
00
01
05
FD
02
03
00
FE
02
FF
07
00
03
FD
F9
F9
02
F8
02
00
FC
FD
02
01
04
00
FC
02
03
03
06
FD
FF
FF
03
00
FA
06
FE
04
FF
01
02
01
01
FE
03
05
FF
FA
FF
FF
FC
FC
00
03
FE
FD
FF
05
F9
03
01
02
FB
FC
04
06
04
01
01
02
F9
03
03
FF
FF
06
07
FB
FC
FC
FF
FA
FE
FE
01
FE
04
FD
03
FE
01
01
02
FF
05
03
FD
FC
00
FE
04
FC
FD
FB
04
FC
0B
03
02
06
00
FF
FC
05
FF
FF
03
00
FF
FC
00
FE
03
FE
06
FA
01
FD
FF
06
04
04
07
06
02
FD
FD
03
FD
FE
FD
02
FC
FD
02
03
FC
05
FC
FC
01
02
FB
03
FB
02
F9
00
00
FC
FE
03
FA
04
FF
01
06
FF
FE
FC
FE
FF
00
01
02
04
FC
00
06
04
FD
03
01
06
FC
FA
FC
FD
06
FE
05
04
00
06
FF
FD
FD
FE
06
FF
04
FD
04
03
FF
04
FB
01
FC
FE
FE
FE
01
FE
04
02
03
03
FA
03
04
04
04
01
FF
FD
06
00
05
FF
FA
00
FC
05
01
FE
03
03
00
FE
FF
02
00
05
FB
01
04
04
04
FC
01
00
FA
01
FF
FD
FD
FF
06
01
02
01
FC
03
FD
03
FE
01
FC
FC
06
03
06
FA
01
FD
05
FF
06
02
01
01
FB
03
01
04
FF
02
04
FF
FE
FA
FD
FF
FD
00
FF
F8
04
02
06
07
07
07
FD
F9
05
FC
FF
FD
05
00
FE
05
FF
FC
08
06
FF
FC
FD
00
02
FF
02
FF
06
FF
02
07
FF
FF
00
FC
04
04
FE
05
FF
FF
02
FE
F9
03
FA
FC
05
FF
05
02
FE
04
03
FF
FB
03
00
01
FF
04
FE
00
02
FB
FB
03
FF
02
03
07
00
04
04
03
00
FE
FC
04
F9
FD
FC
FB
00
05
03
FF
FD
FC
06
03
FA
FC
00
00
FB
05
FD
01
FA
FD
FF
00
04
FF
03
01
FF
00
FD
FF
FC
FC
FF
05
FE
FB
FE
00
01
FB
01
02
01
05
FB
FA
00
01
FF
02
FC
03
03
FD
05
FC
FC
03
03
00
04
FB
04
00
00
03
FD
FE
00
FF
02
FF
FB
04
FE
FB
03
FE
03
FA
02
02
04
05
FB
00
FF
02
FE
03
FF
FC
FD
FD
FE
FB
FF
FB
FC
FA
02
FE
FE
FE
FC
05
FC
02
FB
FF
01
FD
FF
05
FC
FD
02
FD
04
FA
FC
FE
04
03
05
05
01
FB
FE
03
04
01
FB
FC
00
FC
04
FB
04
FC
FF
01
FC
FF
FE
FF
FE
FB
05
01
FC
00
FD
FF
02
FA
FF
05
FC
FD
FE
FE
FC
06
FD
FE
FC
03
00
FF
02
04
01
04
FD
01
02
06
FD
FB
FD
FE
FB
FB
00
06
02
FF
FE
01
01
06
01
03
03
FB
00
FE
FD
05
01
04
F9
FD
FF
04
03
08
05
FC
06
04
03
00
03
02
00
05
09
04
03
00
05
F9
08
05
07
FB
03
06
FC
06
01
FE
03
F8
06
FF
01
03
FE
FE
06
FE
01
01
03
03
03
FC
FD
04
FB
FE
FF
FF
FF
05
00
01
F7
FC
04
FC
FB
FA
FE
FA
FB
FC
FD
FC
07
08
FD
FE
FF
FA
FB
FD
03
00
FD
F8
FE
FC
04
00
FD
FD
FB
01
00
FB
F7
03
FB
FD
FD
03
03
FD
03
01
FB
00
FC
FD
FB
FE
04
FD
FC
05
04
04
02
FC
00
FB
FE
01
FE
FE
FC
03
FD
FF
01
03
05
02
FA
05
05
FE
FB
FF
FD
FD
03
FD
00
05
03
03
02
FC
03
03
05
00
FA
00
FB
FE
FE
FF
FB
FF
03
FB
FC
FC
04
FF
02
05
FB
FB
FB
FC
FB
00
02
FC
FF
02
02
FD
02
02
FA
FA
FB
06
00
00
FB
FC
FE
01
F9
04
01
00
05
FB
03
00
02
00
04
01
FB
F9
03
01
FF
FB
07
05
FE
04
03
07
03
06
01
FD
FF
FB
F9
03
FA
FC
FF
03
FE
05
F9
FE
05
FE
03
01
00
01
FF
02
03
FD
FD
00
FB
02
F6
FC
04
FD
04
05
02
FF
03
00
FF
05
04
FB
06
FE
01
02
04
00
03
02
FE
01
02
FC
06
FD
03
03
FA
02
00
FF
FD
01
06
02
05
FA
04
FE
01
FE
02
05
02
FC
00
FA
03
FD
02
00
04
FD
FF
02
06
FC
FE
FA
03
FF
07
FF
03
FB
FE
04
00
FF
04
01
00
02
FF
FD
F7
F7
04
04
FE
FF
08
03
F9
05
FE
02
F9
05
FE
02
05
FD
02
07
02
FB
01
03
05
FD
FB
03
00
FF
05
01
FE
FE
FE
FD
FE
04
F9
04
03
FE
FA
04
04
FB
02
01
FF
FD
02
FE
FD
FD
FB
FA
FE
FA
01
FF
01
00
07
FB
FF
FB
00
04
FF
00
03
FB
FF
06
05
F9
01
FC
FE
FC
FC
F7
FC
03
FD
FE
03
00
FD
07
FF
FF
04
06
05
FD
00
FF
04
04
FF
04
06
00
FB
FB
02
FB
01
F9
FE
01
03
04
04
04
FC
01
00
FE
02
03
03
FF
FA
02
FD
FE
04
04
01
02
FF
FB
FC
FE
03
FD
FF
00
FC
00
02
FC
05
FE
02
FD
FB
01
01
FF
03
FE
01
01
FC
FD
03
FA
FC
FC
FF
00
FB
FC
FF
FD
FC
00
00
FD
FE
FF
02
FF
FD
03
FE
01
FF
03
FF
FC
02
FE
02
FF
FD
04
FD
FE
00
04
FE
FB
01
FC
FE
02
FF
04
FB
03
02
FD
FE
FD
FD
F9
FF
FD
FE
FB
02
00
00
FF
FC
01
03
02
FC
01
FA
FC
FD
FC
FE
FD
FB
03
04
01
FC
04
FF
01
FD
FD
06
00
FD
FC
00
FD
FE
03
05
04
01
FC
03
FB
00
FE
00
FF
02
FE
07
FE
06
FE
FF
07
05
FE
06
02
FB
FE
FD
FF
FF
00
00
FC
FD
FD
03
00
01
FD
FE
01
FC
FD
01
FD
03
01
FF
FD
FC
FF
02
FD
FE
00
02
01
06
03
02
04
06
FC
07
03
05
02
FD
04
04
04
FF
00
FD
02
00
03
FF
00
02
03
03
FC
FE
FC
00
FC
00
00
FC
FF
FD
FE
01
04
03
07
FF
06
03
FD
02
03
00
FA
00
FC
FE
FD
05
04
01
FF
FF
FC
03
FC
FC
FF
02
04
FB
02
03
00
05
FA
FF
FD
FE
FF
00
04
04
FE
01
05
00
01
04
00
04
04
01
FD
01
FB
FE
FD
FA
04
FA
02
03
04
FE
FC
04
04
01
FB
04
FE
03
03
FB
03
FB
FC
02
FE
FB
03
FA
01
FC
04
03
FC
FC
FC
01
FB
FA
03
FE
02
03
FC
02
FD
FE
FB
FE
FD
02
FF
04
02
00
01
04
00
00
FE
02
FE
04
02
F9
03
FA
FA
00
FD
04
03
FD
FB
FE
FD
FB
FC
FA
FF
FC
04
05
00
FD
FB
01
F9
FA
FD
FD
03
FE
03
FB
01
06
00
04
FC
02
00
FE
00
04
00
04
03
03
05
FD
FB
FE
FD
FC
FF
FC
06
02
FE
00
FB
03
05
FE
03
03
FA
FA
03
FB
04
FE
05
03
00
FE
05
FB
01
02
03
FF
FD
FC
03
02
01
02
FD
0A
04
06
FB
04
FC
FD
00
FE
01
FF
FC
05
01
06
05
02
FC
FA
FB
05
02
FB
01
00
FC
FF
05
FD
04
FF
FB
FA
01
01
03
00
FF
FB
FB
04
04
04
03
05
00
03
08
02
FD
FB
FF
04
00
01
FC
05
01
FC
FA
05
07
FD
00
04
FD
03
FE
03
00
FA
FF
02
01
03
01
05
00
01
02
05
FA
FD
01
FE
FB
FE
FC
FB
FE
03
08
04
FD
00
05
04
04
02
FF
05
FD
02
FA
04
06
02
04
FD
FC
FC
FE
02
FD
09
FF
FC
FD
FF
05
05
FF
07
05
FD
07
00
FD
00
FA
FF
02
04
03
04
05
02
FD
FD
FD
03
FC
00
02
F6
00
FB
06
FC
FD
00
01
FB
01
00
05
05
FB
FE
FF
03
06
04
FB
FF
02
FD
02
09
05
FC
FE
FC
01
FE
FE
06
05
FE
FF
03
FA
01
FF
FF
FF
FA
02
FE
FF
FD
01
FC
FA
04
FB
03
FC
FD
FB
00
FB
00
FA
FE
03
03
FD
FE
FF
03
01
01
04
00
01
FC
02
FD
FD
FE
04
FB
FC
FD
FC
00
00
00
01
FE
03
05
FE
FD
02
02
FC
FB
02
FE
FF
FB
01
FE
FD
FD
00
FF
02
FD
04
00
FD
02
01
FB
FE
02
00
00
FD
03
02
00
00
FC
00
FC
02
04
04
02
FC
FF
05
FE
03
FE
01
FB
FE
FD
05
FA
03
FD
03
FD
03
FB
00
FC
FF
02
FB
04
03
FA
FA
00
FE
05
FF
FB
04
03
FE
06
04
FB
FA
03
04
06
04
02
04
05
FE
02
01
F8
03
02
FD
FC
04
06
FD
00
05
03
01
01
FA
FE
FC
06
05
02
FA
F9
05
03
03
02
00
03
04
FE
FF
02
FF
05
01
02
06
FF
01
03
FE
06
00
02
04
00
00
02
FA
04
05
F9
01
FD
02
05
FF
02
FC
FF
FF
FF
00
02
02
FB
05
02
FC
FD
02
05
00
FA
03
01
02
03
02
FA
00
FC
FE
06
07
02
04
03
01
FE
FE
FE
FC
05
FA
FE
FD
01
FF
03
FE
02
00
FC
FD
04
FC
FF
06
FD
06
01
06
FC
FE
FC
03
03
FE
FC
FE
00
FB
02
08
FD
04
00
F9
FC
FE
02
FC
04
0A
02
02
02
01
FC
FF
FB
00
FD
04
00
00
00
FF
FD
FA
02
FC
02
FD
06
01
05
01
FE
FE
02
FE
03
FC
00
01
02
04
05
FB
FF
FB
05
FE
00
02
FF
FD
FE
04
03
FB
FC
03
FE
FD
FF
F9
02
FD
FC
FD
FF
01
04
02
FE
FF
02
FF
FD
02
04
06
01
FD
05
02
FC
06
01
04
FE
02
05
01
04
FC
FD
FC
FE
FE
03
FD
02
03
00
06
FE
FC
F9
04
04
FB
F9
FA
01
FD
01
FF
06
04
00
FB
FD
02
FA
04
05
FE
01
FA
01
F8
00
FF
FB
00
01
00
FC
05
03
FF
00
FF
05
02
02
01
FD
FC
04
FF
FE
04
01
06
05
05
F9
07
05
05
FE
07
FF
FF
FD
01
03
FE
02
FB
02
FE
04
FE
01
FE
02
03
06
FF
FD
01
07
06
FE
00
04
FE
00
02
03
04
FF
01
FC
05
08
FB
01
FC
FC
FA
FA
02
FC
02
FD
FC
00
FC
04
01
00
04
FF
04
05
01
FB
01
01
FD
02
01
FB
FA
02
FC
FF
FD
04
02
02
04
02
00
01
01
02
FA
03
03
FC
00
FF
FF
FF
FC
04
02
FC
FE
04
FF
04
00
FF
03
04
FB
03
FD
02
FA
FB
FE
03
FF
01
FD
03
01
03
FF
02
F9
04
FD
FC
FC
FB
03
00
04
04
FB
04
FA
FE
FD
01
FF
F9
01
FE
00
03
FD
04
00
05
FE
FB
FF
FB
00
FE
FE
FF
FC
FF
FE
FD
00
03
FE
01
FF
FD
05
FD
03
FE
04
FB
03
02
FE
FD
FB
FF
FC
00
FC
03
04
FE
FE
04
FE
FB
04
FD
01
01
04
09
02
FF
FD
04
FE
FF
FB
FF
FE
02
03
01
00
05
00
01
FF
01
FC
FC
06
00
00
08
FB
01
FF
FD
02
02
FD
01
FC
02
00
03
03
02
02
01
FE
FF
FC
FC
04
03
FF
00
06
03
00
03
02
03
FE
05
FC
FF
03
02
04
FC
01
01
FE
FB
00
04
08
FC
05
02
FD
FF
FB
04
FA
FD
FD
05
FF
00
FD
02
FE
FD
02
04
FE
FF
04
04
FE
FF
FA
01
FE
FB
FE
01
04
00
06
06
FB
03
02
FF
FC
02
05
06
05
00
00
FE
05
06
FB
08
05
FF
03
FE
03
04
FC
03
03
01
FD
FB
FB
FD
07
04
FD
02
02
03
FE
05
06
FB
01
FE
07
FF
04
02
00
00
F9
00
FE
FA
06
FF
04
02
FF
02
FA
F9
FB
FB
FF
0B
FC
02
FC
FC
03
FB
01
FE
FD
02
FF
FE
FB
05
FE
FD
05
FD
01
05
F9
05
FD
02
03
FC
00
03
05
04
04
02
00
02
FE
FE
02
00
06
00
FE
02
05
01
FD
FE
FB
00
FD
03
FB
04
FD
FC
00
FE
04
01
F9
FE
00
03
01
FA
FA
FE
FD
FD
FD
FB
01
03
05
FD
01
05
00
03
FC
02
FD
00
01
FB
03
FF
FA
00
03
00
01
FE
02
FB
01
FD
FA
00
04
FF
01
FB
03
FE
01
01
05
00
FB
01
00
02
FE
FD
02
FB
00
FB
FB
01
FD
02
00
FC
FE
02
00
FC
01
04
FB
00
FD
FA
FF
01
FD
FA
01
FB
FD
03
05
FF
FC
01
FD
00
05
FE
FB
04
FB
05
FF
02
00
04
FF
00
FB
FE
FB
02
04
FB
FE
FD
01
00
01
FE
FE
01
02
02
FB
FF
03
05
FE
FA
FC
02
FF
05
FC
01
FF
FC
FA
FA
00
FB
00
00
FE
02
FD
00
FF
FA
01
02
00
04
03
FD
FB
04
FF
00
00
FB
FF
05
04
FF
03
00
FA
FE
04
FE
FE
00
01
FD
01
FC
FF
FD
02
FF
04
05
02
00
02
FF
01
04
FC
FD
FF
06
FF
05
F7
FC
FC
01
FC
04
FC
FE
00
01
03
03
FD
02
03
06
FF
FD
01
04
FE
FF
FE
FE
03
02
02
FD
FE
03
04
03
00
FE
01
05
05
FD
07
03
02
FE
01
03
02
FE
03
06
FB
02
02
FE
FA
03
01
05
FC
FE
06
07
03
FD
FB
04
05
F9
FE
06
03
01
07
04
00
03
FD
00
07
02
03
00
FD
05
FB
FA
FA
FF
FF
FD
FD
F4
FD
01
03
EF
03
02
FC
FE
03
03
FE
FD
05
00
02
01
03
01
FB
FF
FA
FD
FD
05
FA
FD
02
FF
06
03
02
FB
FB
01
04
03
04
FD
00
05
02
01
F9
FF
05
FE
00
FD
FD
FD
FE
01
03
02
00
07
03
F9
07
00
02
FA
FA
04
03
FE
04
FF
04
00
FB
FC
FD
FB
FE
F8
03
F4
F8
FD
F5
FE
FC
FE
03
04
02
FF
FF
FD
FA
05
01
01
FD
FE
FB
02
07
FD
04
FE
05
06
02
04
FD
04
03
FF
FD
FE
FC
FD
FF
03
00
F9
00
01
FF
06
FE
FF
05
FF
00
FC
FD
01
FB
FD
01
00
00
FD
FF
FF
FD
FE
FF
07
FE
F9
00
05
03
FF
07
02
FE
FB
FC
FC
06
FF
02
05
09
05
03
FC
02
FC
03
00
00
FF
FA
03
00
00
FD
FB
FD
FD
FD
FC
FD
03
01
05
FE
05
FA
FC
03
07
03
FE
F9
FE
FD
FC
02
FC
FC
FC
02
02
FD
05
01
06
06
04
01
01
05
FE
FB
01
FD
FF
06
FD
FF
FC
07
01
FA
01
FF
05
03
FE
FE
FC
04
03
FD
FE
FE
02
FA
03
FC
FD
02
F9
F9
FE
FB
FE
FB
05
03
FD
05
FD
05
01
00
FF
FE
02
03
05
04
01
04
04
FD
FD
FB
FE
FA
FB
03
FF
01
00
FE
05
03
FC
05
02
FF
05
FF
FB
FF
02
FC
FF
00
02
02
FC
01
FE
03
04
FC
FF
00
FF
FD
05
FE
FF
02
FE
FF
00
00
07
05
FF
FE
02
FD
FF
FC
04
01
F9
FC
00
FE
03
FD
FC
FA
00
FB
FA
03
00
FB
FD
FF
02
FA
00
FC
FE
FE
FD
04
FE
00
02
FA
05
03
FF
FA
01
01
01
FA
03
FF
FD
FD
FB
FD
03
FA
00
01
FB
FC
00
00
00
02
02
FF
04
FE
FB
00
04
04
04
FA
FB
01
FD
FD
03
FF
FC
FB
FE
05
03
F8
FC
04
F9
02
FE
03
FD
FC
05
FC
04
FA
00
03
FC
05
00
FA
FF
FE
02
FE
FA
04
04
04
FD
01
FA
FB
03
FA
04
02
FB
FF
02
FE
F9
FC
FE
FA
FF
FC
FA
FF
00
FE
04
03
FE
02
02
03
00
FD
00
FF
FC
00
FA
FB
FD
FD
03
FE
FF
FE
FC
01
01
02
FE
FC
FD
01
FF
F9
05
FD
03
F9
00
FC
01
FA
00
FC
00
FA
05
FF
FD
FB
FD
04
FE
01
00
FD
FD
FE
FF
FF
01
FB
FB
FA
FF
00
FE
00
FE
02
FB
FE
FF
03
00
02
FE
FC
FB
FA
FE
00
05
FC
FB
05
01
FA
01
FF
03
FD
FE
FA
00
FF
01
00
00
FE
FE
03
02
FC
FE
02
FD
FA
FF
FD
02
00
FD
FE
FE
03
FE
FD
01
FF
FA
00
FD
03
00
FF
FB
FB
04
FD
FE
00
FD
FB
FE
FC
FE
FA
FD
01
FB
03
02
FB
03
02
FD
04
03
FD
04
FE
05
FD
FF
05
FF
FC
00
FD
FE
FB
03
01
FC
FC
03
01
FF
00
FC
05
02
FC
00
FF
02
01
02
02
FB
FE
00
03
02
FB
01
04
02
00
FE
FF
FA
FF
04
01
00
F9
03
FF
FA
02
FF
FE
FA
FE
FC
FE
01
FC
01
05
04
FC
FB
FD
00
FE
FE
05
FE
04
FD
00
00
FB
FB
02
04
FB
F9
00
02
FD
02
02
05
01
FC
03
03
FF
FB
00
04
FD
FE
01
FB
02
FD
FE
06
FF
FE
FE
FC
07
03
FA
06
01
FD
FF
02
02
FE
FE
FD
F8
03
00
F9
01
FA
02
FE
03
00
02
FB
00
01
FE
FA
05
FF
FF
F9
FC
FD
04
FE
00
05
02
FB
FC
00
FB
01
01
01
01
06
07
09
01
01
00
02
F9
FC
03
FF
FF
FD
01
06
04
04
05
FD
03
FE
FA
FE
01
FC
FB
FB
03
FB
06
02
FD
00
FF
FD
FF
04
01
07
02
FF
05
05
00
02
FF
FE
03
FF
FA
F9
00
00
06
05
01
04
FB
FD
06
03
FE
04
FE
01
03
FC
FC
FA
00
FB
04
04
01
00
FC
FA
FE
02
02
05
03
FE
00
FD
FA
04
FD
FA
01
FC
FD
FB
FE
01
FC
01
01
03
FB
00
01
FE
01
00
FE
FB
01
FE
01
FB
FF
02
FE
00
FC
02
04
02
FE
01
02
FF
FC
FA
FD
04
FD
FB
03
FC
04
02
02
02
03
02
FE
FE
FF
01
FD
01
FA
02
03
03
FB
FC
03
FC
00
02
01
FD
05
00
01
02
FC
03
FB
03
02
00
02
04
03
FC
FA
02
01
FB
02
FB
FB
FC
FD
FF
01
01
FA
FB
FF
05
02
FB
03
FB
05
FB
FE
FC
01
FC
FE
00
02
02
FF
FD
03
FF
05
00
01
05
FC
01
FD
02
02
04
02
05
04
FF
03
FD
02
02
FE
FE
FE
FB
FE
FF
03
FB
04
01
05
04
FC
01
04
02
FD
FC
FB
FF
FE
02
02
00
FE
05
FF
FF
FF
04
FE
FF
FB
FF
02
FC
00
04
FB
FC
FE
FF
FB
FE
03
FB
FE
FC
FC
FC
FF
FF
04
02
FF
03
05
FF
03
01
05
01
01
00
02
FB
FD
FE
FB
FC
FE
FD
05
01
FB
FE
FF
FE
FF
FF
01
03
FF
FF
03
02
04
02
00
FB
00
FD
04
00
FC
02
03
FB
01
FF
FB
FF
03
FB
07
FD
FE
05
04
FE
03
03
04
02
FC
04
03
FA
FE
FF
02
FC
FD
01
00
06
01
FD
03
FE
05
FD
02
03
FE
06
05
FB
05
FF
00
0A
FD
00
01
FD
FE
FD
04
FC
04
FF
FE
FC
03
03
FD
01
FF
FB
01
04
FE
00
02
FB
FE
03
FF
FE
03
02
01
FC
02
05
FC
FC
01
01
06
06
FD
01
FB
FE
01
00
FF
01
07
FC
06
05
02
02
03
FE
02
FF
FF
03
03
06
FF
02
FC
FC
02
00
FB
04
04
F7
04
FD
03
FB
01
FE
FD
01
FA
00
00
FF
FD
FF
03
FB
FF
01
00
01
FC
07
FC
03
00
FD
05
FC
FE
00
05
05
02
03
FA
00
05
FD
FC
FD
02
04
00
FB
03
05
05
F8
06
03
06
FE
00
05
05
FD
FA
FD
05
06
04
04
FB
01
03
FC
FC
FC
00
05
00
FC
04
FD
00
03
05
01
01
02
02
00
00
01
00
00
FB
02
04
04
01
02
FF
FF
FE
FC
02
FE
FD
FE
FF
FC
FE
FD
FE
07
07
00
01
FB
03
FE
02
FA
03
00
03
FD
03
00
FA
00
01
01
02
FD
05
01
06
05
FF
FC
07
04
02
FE
03
FB
FE
FF
FD
00
08
FB
FF
FD
05
05
05
01
06
FF
03
00
05
FF
FF
FC
FC
00
FF
FC
FF
00
FA
FC
FA
07
FB
FA
FB
FF
FC
00
03
FF
01
FF
00
FA
FD
01
FE
02
FF
FD
05
00
03
FE
FB
02
FE
03
FD
02
03
FB
02
02
FA
FF
03
FA
FE
00
00
01
FF
FE
FF
FC
FF
01
FE
05
FA
FB
04
03
FC
FD
FC
FF
FE
00
02
FF
FF
01
FD
FD
04
FC
05
FC
F9
03
FA
FC
04
01
00
02
01
FB
FF
04
00
00
FD
FD
02
FD
FD
04
04
04
F8
00
04
00
FD
06
FA
FF
02
FF
03
00
FA
FF
FB
05
FA
FC
FF
01
FC
FC
FD
08
FC
FB
03
FD
05
FC
03
01
03
02
FC
FD
FF
FC
FF
03
01
04
03
FC
01
00
01
00
04
03
02
03
03
06
FF
02
00
F9
FB
FD
FC
05
07
FB
FE
06
FA
05
FF
01
03
03
05
05
00
FE
02
FB
05
03
00
04
05
FF
FF
04
FE
03
01
FB
02
FB
FA
03
02
00
04
02
F8
FF
00
FA
01
FE
00
FD
02
FA
FC
06
FA
04
FD
01
02
06
03
FF
02
FE
FF
01
04
05
F9
FC
01
01
FD
00
FD
06
FF
02
FA
05
FE
FA
01
02
03
04
02
02
02
FC
04
FC
03
FF
04
06
FC
01
06
04
04
FF
00
00
FF
FE
00
04
06
FC
07
FC
03
FB
05
00
FF
04
03
01
05
00
FD
02
02
FF
FB
FF
04
F9
02
02
01
FD
FD
FD
FA
01
03
04
06
FD
FE
FB
FF
FB
FF
01
00
04
FC
00
FE
