F2
FE
FE
F9
FF
01
F5
04
06
01
FC
06
05
FF
FB
FC
03
09
F7
06
F6
F4
F9
FE
FC
FF
06
FE
FB
00
FC
01
F9
FB
07
04
01
00
01
06
07
FC
02
02
FF
F9
04
01
FC
04
F4
FD
FE
FB
FA
07
04
06
FD
08
01
FE
00
F9
F7
FC
FF
03
02
FD
FE
FF
05
02
05
F8
F7
03
04
03
02
FE
07
05
FD
08
00
FB
FD
FC
FE
01
06
F6
F8
F7
03
00
08
09
FB
06
FE
05
00
07
02
00
FE
FF
F9
06
0A
FA
FC
F4
04
FF
FE
01
F9
FB
F5
FA
FF
08
F7
02
FD
06
FD
FA
06
F8
05
07
07
01
FA
F6
01
02
F9
FC
09
FD
FB
06
FE
04
03
0D
FF
F7
F6
03
FC
00
F9
01
FA
07
05
07
FD
0A
04
FE
01
0A
F7
00
02
06
F8
03
00
FC
08
FE
03
06
F7
F9
FD
FB
FB
02
01
04
06
06
FD
FF
00
FB
01
FD
06
F8
01
F9
03
FB
FB
03
FD
FB
FF
FA
07
07
FB
FA
07
0C
08
01
05
FC
04
FE
F8
FF
FA
FF
F9
FE
04
FA
FD
F8
07
FC
08
02
FE
FE
03
FC
F7
00
FA
FB
00
02
FA
00
09
FB
05
06
08
F7
04
FA
FC
07
FB
06
06
F6
FA
05
07
06
05
FA
07
FF
FD
FF
02
04
F8
F9
00
F8
F8
06
03
06
FC
FC
F7
00
03
F8
F9
04
FB
FE
F6
00
FB
F8
06
01
04
FC
F5
03
01
FB
FE
FC
07
FA
01
F8
02
FE
03
FB
05
FF
05
03
FB
F0
06
02
FE
F8
FD
F9
FA
FA
FC
FD
06
FC
04
FB
F7
FE
02
FB
FE
06
03
FB
FF
05
FA
00
07
04
FD
F4
08
03
FE
FC
07
F4
02
03
FD
FE
FA
03
08
01
FB
FF
F9
FA
07
01
07
FB
07
F5
FB
F8
09
05
FF
FA
F7
F9
FB
FE
FB
FC
03
FE
0A
03
01
08
FB
FF
02
00
F6
05
FC
F9
05
FF
F8
09
FD
01
03
FD
08
07
F9
01
FF
FA
F9
03
FF
01
FD
09
07
F8
08
FA
FA
01
0A
01
FD
F8
F9
08
F8
F9
07
06
FF
01
F8
06
F9
03
05
07
F6
FC
08
FD
00
FD
FF
06
00
06
07
FC
FA
05
FC
05
F8
FB
FC
F9
F9
FC
FE
FD
FD
06
03
05
FC
01
08
FD
FB
07
05
F9
03
FF
FC
FF
F9
FC
02
0B
FE
FC
07
07
04
FB
FF
FE
02
FB
FB
F6
F7
FD
F9
FD
F6
FD
FE
07
04
FB
FE
FF
0B
04
F9
FF
07
FA
06
07
06
FD
04
06
FB
07
01
FF
FC
06
04
05
F6
F3
FB
FA
FB
F7
04
00
04
FE
06
FF
00
F4
FD
F9
F6
09
FE
FD
FA
FA
02
FB
01
01
FF
01
03
09
06
02
F8
07
02
00
F4
FC
09
F6
FD
04
0B
FB
FC
FB
06
07
FC
FB
FB
FC
F4
F8
06
FE
F6
FC
F6
F7
03
FA
03
FE
08
FF
00
03
F7
0A
F9
02
06
FA
07
02
FA
06
FA
F8
FC
07
06
F8
02
FD
FA
00
08
06
01
F9
FF
FD
FF
F8
03
06
FA
08
06
FE
F7
F6
FE
09
FD
FF
03
05
03
04
00
F6
FC
04
09
05
FE
02
F9
FA
FF
01
F9
06
03
F7
FB
F9
01
FD
02
FE
08
09
FC
FA
FE
FF
FC
FD
00
FC
05
01
02
05
FA
F9
FF
05
05
FF
05
01
01
F9
06
00
FC
06
FA
08
0A
01
FB
06
FA
FC
06
09
FE
FA
F9
07
FB
01
FD
F9
00
FF
F8
FD
FF
06
07
02
FA
09
01
07
F5
FA
FB
FA
04
07
02
FB
F9
04
FB
FF
03
FE
00
FC
F9
FA
FF
F9
FD
FE
00
03
FC
FA
07
F7
03
01
FD
FB
06
FF
FE
01
F9
06
06
F7
F6
0A
F9
FF
05
F7
07
FC
06
02
06
F8
F2
FD
FB
F7
F9
02
05
03
FD
02
FB
07
06
01
06
FA
05
FF
F8
05
06
FB
05
02
FF
07
FD
F7
01
02
FE
06
F7
FD
09
03
07
FF
03
08
F6
FB
F9
FD
08
FE
FF
00
FD
03
F5
06
FB
01
FD
FA
08
01
07
06
04
FD
02
FE
