FE
F6
F5
FB
FC
F5
F4
FC
FA
FB
FE
00
01
01
02
0A
0D
0B
08
05
09
09
03
04
06
F6
03
00
04
00
F5
02
08
0A
00
F7
07
05
09
FE
FE
0B
03
FF
01
07
05
00
03
04
F9
F2
FD
01
09
F2
F6
04
0B
02
F5
FA
04
09
06
F8
FC
06
08
03
FE
05
0A
03
08
05
06
05
07
00
03
09
06
03
07
00
FE
01
07
00
F9
FA
02
0A
0A
FA
FB
FA
01
0A
00
04
0B
09
04
00
00
06
06
08
FD
FC
03
04
06
F5
F6
F3
FA
FC
FB
FC
F5
F4
F9
07
09
08
06
FA
03
03
09
06
01
FF
00
08
06
04
06
02
02
04
07
01
FC
FD
04
FD
