FB
FC
04
07
08
FA
FB
FD
FD
FC
FD
FF
04
04
02
04
04
09
06
00
01
04
06
05
FC
00
01
00
02
00
F8
FC
FC
FC
FF
FD
00
FD
01
00
01
00
FE
FF
01
FF
05
04
02
FE
FC
00
FB
FA
F8
FE
00
FD
F8
FA
01
FE
FD
FD
FF
00
02
FF
FF
00
02
01
01
00
FE
05
06
05
05
04
02
FF
03
04
03
FA
FD
00
04
FE
01
FE
FD
03
FF
01
03
05
FE
03
05
07
06
02
03
00
02
07
05
06
FA
04
00
03
02
F9
FC
00
FC
FB
01
05
06
00
00
05
03
03
06
07
01
FE
FF
02
06
FB
FA
FC
01
01
FF
02
00
02
00
FE
FE
01
03
01
FB
01
00
06
05
02
00
08
06
08
FF
FF
01
05
01
F7
FC
FA
00
FF
F1
FC
01
01
FB
FA
01
02
FF
00
FE
03
FF
01
FE
01
05
00
04
00
04
04
01
04
00
05
FF
02
03
03
04
02
02
00
FF
07
08
03
FD
FD
06
03
00
02
00
08
00
FB
04
FC
08
FD
FD
00
01
FA
FA
FA
F6
FA
FE
FC
FC
FD
FD
FD
01
01
02
05
03
04
02
02
00
03
00
00
00
00
FE
FA
FA
FA
04
F6
F8
00
05
01
FE
FD
02
05
FF
FC
01
FF
FE
02
FF
00
FD
04
03
FE
F8
FA
F9
F8
F9
FA
FB
00
FC
00
FF
01
FE
03
03
01
00
04
02
02
00
FD
00
03
FD
00
01
03
07
01
02
02
02
03
FF
FE
FE
F8
F8
06
0A
07
04
FB
09
08
08
0A
07
02
00
FF
02
04
00
00
FE
01
01
FF
FA
FC
FE
00
FE
FD
FF
FB
FE
FE
04
02
FF
FE
02
FE
FC
FD
02
01
FF
FB
FD
02
FA
F7
FF
F9
FC
FE
FE
FE
01
00
01
02
05
06
03
01
04
04
02
00
FF
05
06
05
03
FD
02
00
02
04
FD
FA
FB
FF
FD
FE
01
FE
FE
FF
08
08
02
FD
FF
03
08
06
00
04
04
04
04
01
04
04
02
04
00
FD
05
FA
FC
FA
F8
03
03
03
03
00
01
03
01
03
03
01
02
04
02
01
FB
FF
FC
FC
FF
01
FF
FA
FC
FB
FE
FF
00
FA
FC
05
FE
02
FF
05
02
00
02
FF
04
07
05
02
FE
FB
03
00
01
FE
F8
FD
FE
01
05
FF
FF
FC
03
FF
FE
FD
00
02
00
00
FB
FF
00
05
FB
FD
FE
04
02
FB
FC
FE
FE
03
FC
FC
FD
04
03
FA
FD
FA
03
05
F7
F7
FD
01
03
F8
FC
00
03
02
F7
03
02
04
01
FD
03
00
06
03
FD
FB
FF
03
02
01
FF
02
03
FD
FA
02
00
00
FD
FA
04
02
02
FE
02
05
04
03
06
00
0A
06
05
08
04
05
FB
FA
02
05
00
FC
FA
F6
F6
02
01
03
00
01
FC
00
00
05
04
FD
FF
02
01
03
FF
FF
FE
02
FF
FD
FE
03
04
FB
FD
00
02
01
FC
F9
00
00
05
05
FE
02
06
08
06
FF
FD
FE
00
FE
04
09
0D
0F
0C
00
04
03
02
00
02
03
02
05
02
00
03
03
FE
FF
04
01
F8
F8
FE
02
00
FF
01
FD
01
01
03
00
FA
00
01
05
02
02
02
01
FD
FB
FE
02
FC
F7
FB
FB
01
FD
FD
FD
FE
01
FF
04
01
01
00
FF
FD
02
05
02
00
FE
00
05
FD
FA
FE
03
03
00
FD
FD
FD
FD
00
FE
FD
F8
FE
FF
FC
FF
FD
05
02
00
02
04
00
02
07
09
04
08
03
07
05
01
F6
01
03
01
00
FD
FF
FE
04
03
04
FF
01
00
03
03
00
FD
01
FD
01
FF
FE
FC
FD
FA
FA
FD
FF
06
07
03
00
04
03
08
04
03
FC
FF
F4
01
FD
FB
F3
FA
FD
FB
F7
F9
02
00
00
02
02
FF
02
02
04
01
07
FC
02
01
05
00
FB
00
00
00
FD
02
03
FF
FF
FB
04
01
FD
FF
04
00
04
05
04
08
F9
02
02
04
FF
F8
00
01
01
FA
03
06
02
FE
FB
FF
FD
FC
02
00
FA
FB
FD
FF
FE
02
00
01
FE
00
05
04
02
00
FC
00
FC
01
04
FA
FC
FE
FB
FE
FA
FA
F6
F3
FA
FF
FD
FC
FB
00
01
08
01
02
FE
FE
FF
00
02
01
02
FF
FC
FA
FC
FC
FD
FA
01
01
02
FE
FD
04
04
06
04
02
04
05
FF
03
03
00
01
FB
03
02
03
04
FD
FE
FF
04
03
01
01
08
0A
05
04
05
06
06
02
00
FE
01
09
06
00
FE
FF
FA
F8
FC
00
00
03
00
FC
02
03
02
04
04
02
FF
02
01
01
FF
FB
FB
FF
01
05
00
F8
FB
FE
00
FF
FF
FD
FE
03
04
04
FC
FE
FD
FF
FC
FC
FE
FB
FA
FE
FF
02
FC
04
00
FE
FB
02
FE
00
02
00
FF
00
04
02
03
FE
01
02
05
06
00
02
04
01
05
01
07
03
04
05
FF
06
04
01
FE
03
03
05
07
02
05
09
0C
0A
04
05
04
07
03
00
FD
00
FE
FA
FA
01
00
00
FB
FC
FE
FE
03
02
FD
FF
01
04
03
04
FC
02
02
02
04
02
05
08
09
05
03
03
05
09
04
05
00
FE
F7
F0
FC
FC
FD
FA
FA
00
FF
FE
FF
FF
FF
00
01
01
01
05
03
FE
01
03
01
FD
FB
FF
01
01
FD
FC
FB
FB
FF
FF
FD
00
00
FF
02
04
05
08
03
01
02
04
03
03
FD
01
00
FB
00
F8
FB
FF
00
00
01
FD
02
05
03
00
FC
FB
01
04
01
03
00
04
02
FF
01
04
FE
01
FE
FD
FD
FB
FC
00
F9
FB
FB
F8
F6
F8
FE
FF
FE
02
07
05
04
01
08
09
03
04
09
08
07
02
FA
01
FE
FB
FB
FA
03
02
FC
01
01
04
05
02
01
05
00
06
01
00
FC
00
00
FF
FE
FD
FC
FF
FD
F9
FB
03
FF
02
06
06
01
02
04
03
00
FF
04
03
FA
FC
01
01
FB
FA
01
FD
F8
FD
01
09
02
FE
02
00
04
02
FE
00
00
02
00
02
00
03
01
00
FF
01
02
F9
00
FD
FF
00
FB
04
03
01
FD
04
01
03
00
01
03
FD
FF
00
02
FB
00
02
01
FB
FF
02
01
03
FF
FC
FA
FB
FC
FD
FE
FF
FD
01
00
FF
FF
01
01
FE
04
FE
02
04
FD
01
FD
04
04
01
01
FF
FF
FD
FE
FC
FB
FB
F9
02
07
02
01
F8
FB
04
05
FE
FC
F8
FC
04
FE
03
04
06
FE
FF
FA
FE
00
01
FD
FF
03
05
02
02
FE
03
00
FF
00
04
03
01
01
01
01
02
FF
01
FF
02
FC
FB
04
02
FC
F8
F9
05
FB
F3
F4
FA
FE
FC
F8
F5
F8
04
02
FD
F7
FF
FE
01
05
01
04
03
FD
01
04
02
01
FA
03
05
01
00
00
06
05
00
00
06
08
01
05
FE
00
01
02
01
FC
FC
04
02
02
F6
FE
02
05
FC
FC
05
06
07
01
04
07
04
06
04
FC
FE
02
05
FF
FB
FA
02
03
01
FE
02
07
05
05
FC
00
FE
04
07
FB
FC
FD
04
02
01
03
FD
F1
F8
03
FE
FD
F6
FB
05
FB
F7
FB
FF
03
F4
F4
FD
01
FC
F3
FA
02
04
04
FE
FE
04
02
00
FB
03
03
04
02
FB
FF
04
04
00
FE
FD
00
03
FF
FD
02
07
02
02
00
FD
F9
FF
FD
FA
F7
F8
F8
F8
F7
FC
FC
01
F5
F9
01
04
02
F5
02
07
08
04
05
00
00
FC
00
08
03
FE
FA
FD
09
05
F9
FE
FE
01
FF
FE
FF
05
03
FD
02
02
00
01
03
FF
FC
FE
06
05
FF
FD
03
08
07
FF
FF
01
06
00
01
01
03
FF
01
00
03
01
06
05
FE
FB
FF
07
02
FE
01
FE
01
FE
FE
FC
02
FF
FE
FD
FF
FE
02
FD
00
04
FD
FB
F7
00
01
03
F4
F3
FC
05
06
F6
F7
FA
02
02
FC
F9
FF
02
02
03
03
03
04
01
06
04
01
FD
FE
02
06
02
FA
FA
04
02
FC
F8
FE
04
04
00
00
FF
05
01
00
00
FF
01
01
00
FF
FE
03
00
FD
FF
FB
FE
FF
03
FD
F5
03
01
FB
F9
FA
02
FD
FC
F8
04
02
03
FC
04
04
03
FB
00
04
07
FE
01
02
02
03
FE
04
01
04
03
02
03
03
FE
FF
05
FC
FE
05
05
00
FF
02
05
01
FB
01
06
08
01
03
07
05
02
03
FF
03
05
04
FB
FF
01
00
03
00
01
04
04
02
00
FE
FF
00
00
FF
00
FD
00
00
FF
01
02
02
05
FE
02
02
FF
F5
FB
02
03
F7
F3
FA
FF
F9
F1
F4
FA
F9
F9
FA
FB
FD
00
01
FD
FD
04
04
02
FE
FE
04
05
FE
FD
03
03
01
01
FB
02
00
01
FF
00
00
FF
FD
FD
03
FF
01
02
03
05
02
06
01
05
FF
FF
00
F5
FA
FB
FA
F6
00
FE
FA
F9
F9
09
04
04
07
02
08
04
00
FF
00
05
FA
FD
01
FE
03
FE
01
00
FF
F9
00
FD
01
00
FF
03
03
00
02
04
01
01
FD
FF
04
FC
FE
00
FE
FA
FD
03
FF
02
FC
FE
FF
05
03
04
04
04
02
00
FD
FD
FF
01
FC
00
04
01
05
00
FD
FF
FF
04
03
FC
FB
00
00
03
02
FB
FF
FC
02
FE
02
06
FE
F5
FC
FD
01
01
FB
FF
FF
FF
00
FA
FE
03
02
01
FE
FE
FE
FE
01
05
FF
04
FE
01
02
01
03
FC
04
01
03
FF
FC
02
04
FE
F9
FC
02
03
FB
FC
01
FE
03
04
03
FE
03
00
FB
FE
FD
FE
FD
04
FD
04
02
FF
08
08
06
09
07
09
05
01
04
09
02
00
01
FF
03
02
04
FE
02
06
FF
05
01
02
02
05
03
FD
02
FD
02
FB
FA
FB
00
03
01
FE
00
FE
03
FD
FE
05
02
04
03
02
02
05
02
FE
FB
FB
FD
F7
F9
F7
FE
FA
03
FF
FE
02
FF
03
FC
FF
00
01
FD
01
FF
FD
FE
F8
FC
03
02
00
FF
03
03
00
FE
02
04
01
FD
F4
04
04
F5
F5
F3
FC
FF
00
FE
FE
FF
FE
05
02
FE
04
05
08
07
04
FF
FF
FF
03
03
03
00
FB
FD
03
FC
FB
FD
02
04
FE
03
02
03
01
01
01
FF
FD
FF
FB
FF
00
00
03
00
00
FB
F9
00
03
00
01
03
FD
00
05
03
FF
F9
02
FE
FA
F7
FC
00
FF
00
01
FB
FE
01
FD
00
03
02
FE
02
06
07
FB
01
06
06
00
FC
06
02
02
01
FF
FD
FA
F7
FA
00
FC
F9
00
00
FF
01
04
04
FF
01
04
04
01
02
05
04
FF
00
07
FF
05
02
06
FE
01
FF
02
02
04
FC
00
FD
01
03
FE
01
FE
02
04
FE
FB
FC
FD
FD
04
05
08
FE
FF
03
04
09
06
FD
04
02
FB
FF
03
00
F9
F5
F9
00
FF
FB
FA
FE
F9
FE
01
05
03
FE
FF
FE
06
06
05
FB
02
FD
02
07
FD
FC
01
FD
FE
FE
FD
02
00
01
00
FC
FF
04
02
FD
FB
FF
01
03
F8
02
01
01
01
FE
05
04
08
05
FE
00
FE
FB
F8
02
07
03
00
03
FF
05
01
04
FD
FE
03
05
00
FD
01
FD
01
FE
FD
FF
FC
FC
FE
FD
05
07
FF
04
00
03
02
00
01
FE
02
FF
01
FF
FB
FF
FE
FC
FE
FD
FD
FD
FB
FF
FA
02
FE
FF
FF
FC
FE
FB
00
FF
FA
03
FE
01
FD
00
03
00
00
FF
02
02
02
07
03
FE
FE
00
FE
02
00
FA
FD
03
01
02
01
FB
01
05
02
04
FE
01
FE
03
02
06
02
04
02
FC
FE
FC
FB
00
FE
02
FC
FC
00
01
FF
FF
02
00
02
02
01
01
02
01
04
04
01
03
